<unk>	0
<s>	0
</s>	0
s	-2.93614
,	-3.40835
▁de	-3.41685
▁	-3.48597
'	-3.8517
.	-3.97968
▁la	-4.13046
e	-4.15706
▁et	-4.40567
▁l	-4.42505
▁le	-4.53575
▁d	-4.59737
▁à	-4.68036
▁en	-4.7172
▁des	-4.85439
r	-4.87531
-	-4.90881
▁les	-4.90911
▁du	-4.94371
t	-5.00714
▁(	-5.23334
▁par	-5.34505
é	-5.40656
▁est	-5.44035
es	-5.48173
▁un	-5.54397
▁dans	-5.61679
er	-5.64224
’	-5.65069
▁pour	-5.65359
c	-5.65466
▁a	-5.67146
▁une	-5.69033
▁au	-5.69793
)	-5.7269
y	-5.7936
▁qui	-5.82287
▁:	-5.82905
a	-5.83337
ment	-5.85077
▁Le	-5.86685
o	-5.87797
▁19	-5.90846
n	-5.9164
ant	-5.92832
▁sur	-5.96816
re	-5.98063
i	-5.99413
▁que	-5.99576
al	-6.03765
en	-6.05069
▁La	-6.05435
ation	-6.07466
▁plus	-6.07867
▁«	-6.10907
in	-6.11754
▁p	-6.11967
d	-6.12966
nt	-6.13112
u	-6.14184
l	-6.15115
▁En	-6.15511
▁L	-6.16402
on	-6.16855
or	-6.18317
il	-6.25977
▁se	-6.29611
ent	-6.29684
un	-6.31276
▁C	-6.31704
it	-6.3186
ur	-6.33227
▁avec	-6.35285
▁sont	-6.35869
▁c	-6.38905
p	-6.39184
an	-6.3941
▁re	-6.41999
le	-6.43265
▁B	-6.43689
▁ou	-6.44884
▁s	-6.46051
ra	-6.46252
f	-6.4686
A	-6.49833
▁18	-6.49895
▁son	-6.50232
ne	-6.5098
est	-6.52183
▁con	-6.52352
ée	-6.52536
▁S	-6.52799
ri	-6.5322
),	-6.56437
age	-6.57497
ie	-6.58161
ion	-6.5852
▁Les	-6.58573
ar	-6.59459
▁qu	-6.59818
m	-6.59979
▁A	-6.60185
▁dé	-6.60604
▁ré	-6.60994
at	-6.63074
g	-6.63241
).	-6.63273
▁aux	-6.63423
▁il	-6.64052
k	-6.65759
ou	-6.66117
▁sa	-6.66483
de	-6.67496
▁T	-6.68103
h	-6.6848
▁%	-6.68711
te	-6.69404
une	-6.70427
▁ce	-6.72014
▁n	-6.73278
im	-6.74923
ac	-6.7532
▁F	-6.7547
ch	-6.76088
C	-6.76231
ci	-6.76684
me	-6.77193
la	-6.77341
z	-6.77469
▁»	-6.77474
ité	-6.77719
▁;	-6.78154
v	-6.81152
▁P	-6.8185
li	-6.81862
is	-6.83641
▁comme	-6.84401
▁m	-6.85087
▁G	-6.85938
▁pas	-6.86155
▁Il	-6.86222
us	-6.90976
ro	-6.91994
S	-6.92835
▁ne	-6.93232
au	-6.94811
ique	-6.94853
▁in	-6.95254
▁pro	-6.97395
di	-6.98696
mi	-6.98798
que	-6.99244
▁1	-6.9934
th	-7.02799
ta	-7.03236
x	-7.03469
P	-7.04207
ir	-7.04829
▁ses	-7.05072
▁France	-7.0635
ine	-7.06388
ré	-7.06895
▁été	-7.07039
E	-7.08148
ter	-7.08224
▁entre	-7.09474
ut	-7.10527
▁f	-7.10642
ol	-7.11549
▁M	-7.11804
▁ont	-7.12873
am	-7.13248
min	-7.13623
b	-7.13648
és	-7.13802
ti	-7.1432
▁H	-7.16155
lo	-7.1697
tion	-7.17086
▁v	-7.17418
aux	-7.18257
w	-7.18272
ait	-7.18666
▁t	-7.18838
▁D	-7.19165
vi	-7.19177
ement	-7.19374
I	-7.20218
▁2	-7.2085
che	-7.21496
O	-7.22006
M	-7.22282
▁é	-7.22498
▁pays	-7.23263
eur	-7.23366
▁W	-7.23416
▁fait	-7.23835
ance	-7.24158
▁deux	-7.25113
▁mais	-7.25917
té	-7.26629
tre	-7.27055
▁000	-7.277
el	-7.29229
ère	-7.31413
id	-7.31803
▁V	-7.3203
om	-7.32052
D	-7.32537
▁b	-7.33534
elle	-7.33839
iste	-7.34473
▁cette	-7.35096
▁E	-7.3526
▁17	-7.35501
ge	-7.3552
▁ville	-7.369
▁Ma	-7.37663
▁ex	-7.37772
F	-7.38357
to	-7.38869
N	-7.40277
ing	-7.40973
ma	-7.41032
▁aussi	-7.4186
T	-7.42294
▁De	-7.42469
▁K	-7.42666
▁leur	-7.42762
ic	-7.42966
▁dont	-7.43085
ées	-7.43165
▁sous	-7.43616
▁Paris	-7.44293
ag	-7.45667
▁3	-7.4638
ni	-7.46759
po	-7.46853
▁po	-7.47065
um	-7.47095
ex	-7.47148
▁».	-7.47747
ale	-7.48151
L	-7.48475
ce	-7.48899
▁même	-7.49133
▁États	-7.49202
ard	-7.50082
▁ainsi	-7.50422
B	-7.50747
à	-7.50833
ad	-7.51123
▁siècle	-7.51186
▁groupe	-7.51402
▁»,	-7.51654
ille	-7.51774
▁g	-7.51877
▁co	-7.52194
et	-7.52278
R	-7.52314
tu	-7.52361
▁I	-7.52396
2	-7.52966
lé	-7.53728
▁ch	-7.53922
tant	-7.53997
▁r	-7.54053
na	-7.54109
ens	-7.54692
ot	-7.54752
gé	-7.55534
▁années	-7.55729
▁politique	-7.55855
ab	-7.55998
▁millions	-7.56188
▁fin	-7.56677
mo	-7.57035
aire	-7.5705
▁premier	-7.57964
▁O	-7.58537
▁pré	-7.58666
▁N	-7.58831
pl	-7.58987
able	-7.5952
op	-7.59601
▁Re	-7.62249
nd	-7.62489
ill	-7.62699
▁comp	-7.62762
ence	-7.63248
co	-7.63512
▁alors	-7.63545
▁elle	-7.64335
ier	-7.64424
▁Au	-7.6533
▁contre	-7.65471
art	-7.6548
▁également	-7.65831
▁Portail	-7.66467
av	-7.66475
▁h	-7.67145
▁puis	-7.67211
▁depuis	-7.6726
éri	-7.68162
ph	-7.68293
▁après	-7.68665
▁J	-7.6869
G	-7.69071
▁marché	-7.69496
ig	-7.6953
ign	-7.69564
▁Ce	-7.69782
▁première	-7.70065
▁no	-7.70338
État	-7.7084
▁4	-7.72208
▁être	-7.72407
aient	-7.72548
▁société	-7.74225
if	-7.74267
Unis	-7.7439
ive	-7.74534
▁R	-7.74561
va	-7.74589
▁Mar	-7.74666
né	-7.74855
pe	-7.75262
isme	-7.75396
▁In	-7.76068
eau	-7.76197
H	-7.76437
ais	-7.7683
con	-7.77332
ière	-7.77509
▁Al	-7.7767
ès	-7.77858
les	-7.78627
ca	-7.78807
oc	-7.79139
ia	-7.79214
▁guerre	-7.79495
▁partie	-7.79499
▁ces	-7.79943
▁ans	-7.80308
hi	-7.80774
ég	-7.80981
man	-7.8149
ten	-7.81505
entreprise	-7.81548
▁lui	-7.81677
▁français	-7.82199
/	-7.82288
tra	-7.82555
par	-7.82595
os	-7.8262
▁était	-7.82828
eux	-7.83145
ho	-7.83929
app	-7.83956
mb	-7.83981
▁nom	-7.84065
pr	-7.84127
ouv	-7.84711
▁grand	-7.85209
ist	-7.85411
▁5	-7.85651
qui	-7.85919
▁À	-7.85951
▁très	-7.85978
ton	-7.86408
00	-7.86599
▁dis	-7.87078
ay	-7.87092
qu	-7.87524
▁ligne	-7.88168
ois	-7.88328
▁où	-7.88507
▁plusieurs	-7.88551
▁Ca	-7.8891
▁économique	-7.88949
ver	-7.89461
ienne	-7.89796
3	-7.89986
▁peut	-7.90133
V	-7.9078
▁notamment	-7.9092
▁Elle	-7.91538
▁place	-7.91877
ang	-7.92316
▁6	-7.9283
5	-7.92847
ct	-7.93099
go	-7.93278
▁milliards	-7.93353
no	-7.93419
ite	-7.94343
iv	-7.9457
pa	-7.9464
all	-7.9486
▁16	-7.95085
▁région	-7.95197
▁Dans	-7.95305
▁Par	-7.95375
ob	-7.95607
▁jusqu	-7.9562
▁mai	-7.95633
▁vers	-7.95716
▁fer	-7.96011
▁Ro	-7.96053
ise	-7.96385
▁nouvelle	-7.9641
ul	-7.96702
ins	-7.96807
▁dollars	-7.9708
form	-7.97236
▁monde	-7.97807
▁droit	-7.98291
▁française	-7.98308
▁bien	-7.9856
▁Ch	-7.98594
▁cours	-7.98688
▁Sa	-7.98775
▁Mo	-7.98793
ien	-7.98823
▁Con	-7.99006
▁Ar	-7.99315
port	-7.9936
▁gouvernement	-7.99452
eurs	-7.99643
▁Saint	-7.99877
▁Na	-7.9988
▁public	-7.99983
sse	-8.0038
▁système	-8.00542
▁15	-8.00774
▁of	-8.00793
cul	-8.01473
ap	-8.02199
lu	-8.02381
ture	-8.02469
ure	-8.02589
▁Ha	-8.02869
rie	-8.03022
▁Se	-8.03137
isation	-8.03452
vers	-8.03469
serv	-8.03959
▁déc	-8.04028
tte	-8.0426
▁capital	-8.04642
vo	-8.04648
▁sans	-8.04702
▁lors	-8.04824
▁trois	-8.04927
▁Pa	-8.04997
mp	-8.05061
▁10	-8.05132
▁tout	-8.05171
▁Cette	-8.05192
ba	-8.05295
ru	-8.05367
▁com	-8.05404
▁7	-8.05458
▁y	-8.05939
▁soit	-8.06535
ue	-8.06847
▁mé	-8.073
▁production	-8.07304
▁compte	-8.07528
gu	-8.07697
▁car	-8.08112
end	-8.08299
onne	-8.08522
▁janvier	-8.08538
action	-8.09021
son	-8.09086
▁Co	-8.0909
ron	-8.09238
>	-8.09242
▁jour	-8.09266
tro	-8.09326
▁8	-8.09333
1	-8.1003
do	-8.10085
ç	-8.10151
▁part	-8.10386
▁président	-8.10978
50	-8.11281
▁leurs	-8.11715
▁avant	-8.11816
ort	-8.11993
</	-8.12262
rent	-8.12301
éd	-8.12478
▁9	-8.12582
▁fut	-8.13336
▁grande	-8.13614
our	-8.1369
ve	-8.13722
▁non	-8.13846
▁ma	-8.14028
uc	-8.14032
▁moins	-8.14388
▁Jean	-8.14412
▁rec	-8.14539
ff	-8.14592
▁an	-8.14656
euros	-8.14661
▁début	-8.14897
ISBN	-8.15103
rait	-8.15131
▁celle	-8.15232
mé	-8.15239
0	-8.15854
▁Un	-8.16013
▁valeur	-8.16019
ain	-8.16636
▁mar	-8.17403
▁juillet	-8.17982
U	-8.18198
tes	-8.18255
alité	-8.18255
▁va	-8.18284
▁Po	-8.18885
▁autres	-8.18964
én	-8.19045
▁permet	-8.19088
istes	-8.1915
da	-8.19271
▁juin	-8.19517
▁décembre	-8.19596
▁population	-8.19792
▁É	-8.20018
tt	-8.20097
▁septembre	-8.20246
fi	-8.20358
4	-8.20527
▁nombre	-8.20595
autres	-8.20731
▁trans	-8.2077
pi	-8.21153
ll	-8.21192
▁mars	-8.21257
ante	-8.21298
▁fonction	-8.21375
▁si	-8.21435
up	-8.22234
▁encore	-8.22521
▁avait	-8.22662
▁20	-8.22748
ux	-8.22976
▁général	-8.23002
▁vie	-8.24193
ient	-8.24291
▁Vi	-8.24365
vé	-8.24661
ord	-8.24687
iques	-8.24719
tin	-8.24794
▁fois	-8.24995
land	-8.25002
vant	-8.25116
▁partir	-8.25118
ran	-8.25327
▁cas	-8.25393
▁suite	-8.25578
▁prix	-8.25704
cent	-8.26062
ry	-8.26172
iers	-8.26249
ont	-8.26359
bo	-8.26367
▁bi	-8.2659
hé	-8.26754
ck	-8.27093
aires	-8.27243
▁tour	-8.27642
=	-8.27657
▁port	-8.27732
off	-8.27812
▁américain	-8.27923
économie	-8.27968
20	-8.28014
▁tra	-8.28211
▁Si	-8.28329
lement	-8.28353
▁(19	-8.28489
▁plan	-8.28551
▁octobre	-8.28725
▁selon	-8.28888
gue	-8.2917
▁projet	-8.29338
▁Me	-8.29413
▁entreprises	-8.29648
cl	-8.29709
▁loi	-8.30036
▁faire	-8.30607
▁forme	-8.30662
as	-8.30679
-19	-8.31353
▁Pour	-8.31484
lin	-8.31513
▁New	-8.31559
lan	-8.31687
▁Li	-8.3171
uel	-8.32106
▁taux	-8.32217
▁tous	-8.32322
j	-8.32374
▁avril	-8.32767
and	-8.32919
lle	-8.3303
▁sé	-8.33059
6	-8.3326
▁Cha	-8.33287
od	-8.33333
▁annonce	-8.33613
int	-8.33706
▁novembre	-8.33804
aine	-8.33985
ga	-8.34023
▁Une	-8.34061
dé	-8.34119
ché	-8.34263
ha	-8.34385
▁crise	-8.34665
ire	-8.35011
ration	-8.35025
▁mondiale	-8.35229
mon	-8.35407
voir	-8.35492
▁peu	-8.35645
è	-8.35888
ell	-8.36179
ud	-8.36331
▁européenne	-8.36342
▁on	-8.3655
tribu	-8.36584
▁Ba	-8.36678
▁Ga	-8.37663
▁nouveau	-8.38044
▁développement	-8.38192
ub	-8.38209
fond	-8.38422
vent	-8.38495
▁ba	-8.38734
$2	-8.39043
(	-8.39098
ult	-8.39191
ette	-8.39373
pé	-8.39662
ces	-8.40021
ront	-8.40107
▁An	-8.40147
teur	-8.40301
mar	-8.40373
ê	-8.40389
▁février	-8.40391
▁relative	-8.40595
▁financière	-8.40651
ales	-8.40943
▁reste	-8.40986
ici	-8.41097
▁donc	-8.41196
▁rapport	-8.41262
dic	-8.41408
▁avoir	-8.41422
venu	-8.41424
ert	-8.41432
▁devient	-8.41498
isée	-8.41527
du	-8.41782
▁No	-8.42138
▁inter	-8.4221
cro	-8.42444
lic	-8.42492
▁banque	-8.42825
▁To	-8.42958
▁total	-8.42962
▁Jo	-8.43291
▁temps	-8.43352
▁publique	-8.43538
▁point	-8.43717
▁St	-8.43797
▁titre	-8.43817
isé	-8.43979
8	-8.44161
com	-8.44223
tique	-8.44419
▁Pro	-8.44506
▁personnes	-8.44549
▁Di	-8.44646
enne	-8.44654
ke	-8.44757
▁Ju	-8.44758
▁terme	-8.44768
▁The	-8.45089
▁effet	-8.45297
he	-8.45414
ner	-8.45427
be	-8.45503
▁national	-8.45574
éré	-8.45673
[	-8.45723
oul	-8.45963
▁Mi	-8.45969
7	-8.46017
▁ancien	-8.46176
▁pouvoir	-8.46432
▁site	-8.46492
histoire	-8.4655
nc	-8.46793
tor	-8.46998
60	-8.47059
rou	-8.4711
▁12	-8.47186
uit	-8.47304
▁Louis	-8.47322
▁mort	-8.4761
ateur	-8.47671
]	-8.47811
emp	-8.47942
gi	-8.47989
ables	-8.48265
mand	-8.48371
▁mod	-8.48428
▁utilisé	-8.48898
oire	-8.49034
teurs	-8.49235
ern	-8.49444
▁nationale	-8.49905
▁sub	-8.49911
nel	-8.50098
qué	-8.50133
réf	-8.5026
▁ad	-8.50411
▁centre	-8.50457
▁Bo	-8.50794
▁période	-8.51091
▁réseau	-8.51224
▁Nord	-8.51285
▁août	-8.51401
ix	-8.51805
duc	-8.52052
▁nombreux	-8.52082
▁lieu	-8.52333
naire	-8.52375
▁celui	-8.52505
cour	-8.52659
▁2008	-8.52674
cri	-8.5269
▁per	-8.52799
▁2010	-8.52865
tel	-8.52972
30	-8.53012
▁2016	-8.5324
ng	-8.53255
▁fonds	-8.53322
70	-8.53671
bl	-8.53699
ger	-8.54359
▁mis	-8.54365
▁exemple	-8.54633
▁culture	-8.54646
Uni	-8.54718
exp	-8.54788
em	-8.54807
▁travail	-8.54824
▁cré	-8.54841
▁2017	-8.54986
année	-8.55031
ié	-8.55057
▁14	-8.55169
▁monnaie	-8.55367
▁mois	-8.55392
▁nord	-8.55529
▁imp	-8.55577
▁gr	-8.55681
▁30	-8.55801
▁Gu	-8.56018
log	-8.56058
▁the	-8.56177
èrent	-8.5624
▁près	-8.56375
"	-8.56513
per	-8.566
▁Z	-8.56641
intérêt	-8.56652
▁spécial	-8.56695
origine	-8.56696
80	-8.5678
▁forte	-8.569
uv	-8.56956
▁2015	-8.56958
▁fa	-8.57152
▁rend	-8.5727
position	-8.57445
▁risque	-8.57685
ition	-8.57702
ly	-8.57737
▁2020	-8.57786
use	-8.57997
bon	-8.58057
▁création	-8.58097
▁né	-8.58168
nelle	-8.58389
euse	-8.585
élé	-8.58559
29	-8.58597
▁sol	-8.58653
▁produits	-8.58663
▁2014	-8.58702
▁Car	-8.58761
fin	-8.58979
▁Da	-8.59367
▁américaine	-8.59395
fr	-8.59416
▁recherche	-8.59553
ensemble	-8.59845
▁nécessaire	-8.59845
▁territoire	-8.60003
▁principal	-8.60036
▁fil	-8.60288
▁second	-8.60358
26	-8.60469
▁centrale	-8.60491
io	-8.60522
elles	-8.60794
▁sou	-8.6092
gra	-8.61123
activité	-8.61136
▁niveau	-8.61196
▁roi	-8.61197
▁2007	-8.61211
iens	-8.61375
▁présent	-8.61569
▁fi	-8.61682
▁afin	-8.61719
▁On	-8.6191
hui	-8.62045
▁important	-8.62207
investissement	-8.62406
der	-8.62456
ible	-8.62464
époque	-8.625
men	-8.62515
▁Ho	-8.6252
+	-8.6268
▁vente	-8.62693
▁ju	-8.62835
erie	-8.62849
▁Do	-8.62934
lon	-8.63057
éra	-8.63101
▁11	-8.63193
prim	-8.63306
:	-8.63394
nique	-8.634
Europe	-8.63446
▁secteur	-8.63523
non	-8.6366
10	-8.64007
ld	-8.64085
▁2019	-8.64169
▁2018	-8.64215
▁fr	-8.64455
▁activités	-8.64459
▁britannique	-8.64481
▁inc	-8.64666
▁sud	-8.64695
▁trouve	-8.64697
étude	-8.6475
▁sort	-8.64784
▁vis	-8.64911
armée	-8.64925
industrie	-8.6497
▁livre	-8.65061
▁Mais	-8.65092
▁mise	-8.65321
met	-8.65589
aud	-8.65603
▁Du	-8.65713
▁banques	-8.65799
argent	-8.65814
▁pendant	-8.65908
▁X	-8.66018
9	-8.66077
ologie	-8.66164
▁2012	-8.66214
bre	-8.66267
▁raison	-8.66364
▁finance	-8.66658
isse	-8.6668
▁coll	-8.66893
ow	-8.66928
▁environ	-8.66958
affaires	-8.67006
▁quatre	-8.67141
ren	-8.67148
▁souvent	-8.67454
W	-8.67486
▁Sud	-8.67685
appel	-8.67734
▁dernier	-8.67739
lais	-8.67926
27	-8.68008
▁York	-8.68012
▁cinq	-8.68111
aï	-8.68112
▁2021	-8.68372
être	-8.68373
▁commercial	-8.68404
▁commun	-8.68449
▁situé	-8.68532
▁Th	-8.68544
▁13	-8.68547
pression	-8.68628
▁ministre	-8.68653
lect	-8.68758
▁autre	-8.68825
bi	-8.68989
ache	-8.69014
â	-8.69021
nant	-8.69072
▁—	-8.69076
usine	-8.69085
oli	-8.69106
▁Pe	-8.69277
▁"	-8.694
▁actions	-8.69663
▁commune	-8.69824
▁and	-8.69858
▁militaire	-8.69863
mm	-8.69909
75	-8.69958
▁Y	-8.69959
pp	-8.69976
ô	-8.69985
Allemagne	-8.69988
▁25	-8.70008
▁importante	-8.70049
ade	-8.70058
▁Europe	-8.70089
venir	-8.70358
▁2011	-8.70406
}	-8.70479
▁Bu	-8.70706
née	-8.70711
▁Après	-8.70714
▁certains	-8.70784
ler	-8.7093
cu	-8.71094
yn	-8.71411
▁services	-8.71801
▁peuvent	-8.71809
éli	-8.71869
▁année	-8.71926
tif	-8.7219
▁Chine	-8.7229
Union	-8.72375
▁2013	-8.72381
▁sera	-8.72408
ong	-8.72459
40	-8.72683
▁for	-8.72819
eff	-8.72839
31	-8.72842
acteur	-8.73002
▁parti	-8.73145
échange	-8.73156
▁Ré	-8.73265
▁Ces	-8.73275
▁connu	-8.73285
▁col	-8.73288
▁anglais	-8.73337
ification	-8.73381
45	-8.73405
▁construction	-8.73671
▁Ra	-8.73745
ali	-8.73783
▁produit	-8.73874
▁contrôle	-8.73954
▁Fo	-8.74042
▁étaient	-8.74322
▁crypto	-8.74375
▁doit	-8.74389
▁Des	-8.74414
▁Ressource	-8.74477
▁base	-8.74515
▁2009	-8.74527
ieux	-8.74811
▁zone	-8.74976
atif	-8.74976
▁commerce	-8.74981
▁demande	-8.75019
ène	-8.75192
▁compagnie	-8.75341
▁propre	-8.7536
▁particulier	-8.75368
▁service	-8.75576
°	-8.75657
▁étant	-8.75849
▁(18	-8.75989
bert	-8.76004
X	-8.76063
▁accord	-8.76085
▁U	-8.7631
89	-8.76485
17	-8.76551
fa	-8.76557
tier	-8.76589
▁Ri	-8.76674
information	-8.76806
▁film	-8.77049
str	-8.77053
▁marque	-8.77142
▁chaque	-8.77151
asse	-8.77202
wa	-8.7731
énergie	-8.7763
90	-8.77717
▁suivant	-8.77917
▁Histoire	-8.77927
cession	-8.78138
ari	-8.78448
15	-8.78533
▁0	-8.78588
abilité	-8.78605
▁Mu	-8.78719
uf	-8.78917
▁ayant	-8.78997
ateurs	-8.79101
uis	-8.79102
ordre	-8.79182
▁So	-8.79463
▁fl	-8.79831
ôt	-8.79903
▁croissance	-8.79945
▁so	-8.79951
▁tard	-8.80008
fe	-8.80037
ja	-8.80043
▁2022	-8.80045
ancé	-8.80206
article	-8.80253
▁quelques	-8.80395
entre	-8.80625
▁moyen	-8.80648
EOS	-8.80747
▁travers	-8.80977
92	-8.81
▁Selon	-8.81044
gre	-8.81112
78	-8.81121
BOS	-8.81137
mer	-8.81242
▁km	-8.81262
▁vol	-8.81711
issement	-8.81767
▁toute	-8.81769
ai	-8.81802
har	-8.8183
cha	-8.81908
écu	-8.81935
û	-8.81947
▁appelé	-8.8198
▁télé	-8.8209
▁sociétés	-8.82183
gul	-8.8221
▁transport	-8.82348
▁Dé	-8.82603
▁2006	-8.82771
▁passe	-8.83004
chi	-8.8312
cher	-8.83154
▁donne	-8.83258
Al	-8.83331
habit	-8.83354
▁mesure	-8.83395
ndre	-8.83456
cept	-8.83474
▁nombreuses	-8.83481
14	-8.83668
▁Notes	-8.84025
ty	-8.84036
▁divers	-8.84036
▁100	-8.84049
16	-8.8406
▁filiale	-8.84195
resse	-8.84511
▁gestion	-8.8489
mont	-8.85164
▁Cl	-8.85224
édition	-8.85265
ban	-8.85287
▁grâce	-8.85322
▁all	-8.85341
▁Bourse	-8.85381
pér	-8.85388
▁siège	-8.85396
J	-8.85425
▁50	-8.85469
▁langue	-8.85511
▁Com	-8.85539
ave	-8.85688
▁2000	-8.85782
ît	-8.86061
91	-8.86269
35	-8.86337
▁Go	-8.86597
ution	-8.86657
bu	-8.86732
pro	-8.86759
iser	-8.86794
▁Fin	-8.86849
itaire	-8.86998
▁domaine	-8.87201
pt	-8.87373
93	-8.87507
style	-8.87518
▁européen	-8.87519
ographie	-8.87643
▁cour	-8.87701
cur	-8.8771
▁24	-8.88039
▁coût	-8.88154
▁gaz	-8.8885
▁San	-8.88869
affi	-8.88879
dire	-8.88879
tal	-8.88952
▁type	-8.88966
▁transaction	-8.88994
▁fort	-8.89073
bourg	-8.89183
▁moyenne	-8.89314
▁conseil	-8.89323
ast	-8.89369
br	-8.89392
lant	-8.89455
ven	-8.8957
▁social	-8.89582
▁famille	-8.89781
▁lance	-8.89797
▁données	-8.89908
opération	-8.89925
équipe	-8.90062
▁Compagnie	-8.90116
▁Son	-8.90363
▁François	-8.90615
cou	-8.90654
▁prêt	-8.90742
graph	-8.90781
▁Royaume	-8.90789
▁générale	-8.9086
ug	-8.90904
85	-8.91056
Afrique	-8.91131
▁Lo	-8.9115
-20	-8.91218
homme	-8.9122
▁déb	-8.91226
▁mont	-8.91353
▁Ja	-8.91423
▁Banque	-8.91469
ind	-8.91647
▁historique	-8.91777
ète	-8.91823
▁John	-8.91839
▁Charles	-8.91933
tiques	-8.91948
▁mot	-8.91984
gie	-8.91991
▁toutes	-8.92113
émi	-8.92134
▁Guerre	-8.92276
25	-8.92321
Empire	-8.92368
▁rôle	-8.92399
▁dette	-8.92814
▁grandes	-8.92836
«	-8.92848
▁fusion	-8.93058
▁mini	-8.93096
▁coup	-8.93172
Q	-8.93174
don	-8.93206
émission	-8.93214
▁cadre	-8.9331
▁bas	-8.93316
48	-8.93374
65	-8.93425
Amérique	-8.93497
Ar	-8.9351
tive	-8.93544
ka	-8.93555
▁rue	-8.93604
issant	-8.93636
▁long	-8.93702
▁met	-8.93813
71	-8.93822
ule	-8.93854
▁représente	-8.93963
▁bourse	-8.94005
emploi	-8.94326
bé	-8.94403
▁eu	-8.9459
▁fourni	-8.9464
▁font	-8.94674
▁internationale	-8.94889
▁chef	-8.95017
▁man	-8.95152
omb	-8.95213
▁crédit	-8.95221
▁2005	-8.95228
▁br	-8.95477
▁chiffre	-8.95569
▁terre	-8.95674
▁Société	-8.95698
▁membres	-8.95737
In	-8.95746
▁ceux	-8.95926
▁&	-8.96
tur	-8.96008
ach	-8.96024
vin	-8.96077
▁Col	-8.96079
▁Depuis	-8.96118
▁For	-8.9632
94	-8.96352
▁mondial	-8.96395
phon	-8.96456
gen	-8.96559
▁Cor	-8.96673
▁prend	-8.96782
administration	-8.96899
▁technique	-8.96931
▁directeur	-8.97104
ki	-8.97213
▁civil	-8.97228
{\	-8.97651
▁client	-8.9769
▁francs	-8.98022
▁cause	-8.98022
86	-8.98036
▁2023	-8.98067
88	-8.98078
organisation	-8.98124
▁élevé	-8.98147
▁ensuite	-8.98215
université	-8.98279
▁40	-8.98613
▁978-2	-8.98744
13	-8.9924
iel	-8.99442
tic	-8.99465
monnaie	-8.99486
▁Fa	-8.99554
73	-8.99586
▁déjà	-8.99612
▁(20	-8.99698
▁toujours	-8.99813
ana	-8.99868
▁Pierre	-8.99915
je	-8.99992
▁Mé	-9.00207
▁%)	-9.00404
Angleterre	-9.00691
▁Man	-9.00953
▁Sch	-9.00995
▁financiers	-9.01076
ian	-9.01136
▁continu	-9.01376
12	-9.01484
Espagne	-9.01576
arch	-9.01706
quant	-9.01799
été	-9.01851
▁vend	-9.01894
▁Su	-9.01974
87	-9.02023
▁créé	-9.02026
K	-9.02094
vision	-9.02223
▁références	-9.02489
▁500	-9.02587
jou	-9.0292
▁révolution	-9.02935
ouest	-9.02956
▁Conseil	-9.03024
gan	-9.03073
état	-9.0326
84	-9.03486
assi	-9.03607
ib	-9.03617
É	-9.03718
▁revenu	-9.03767
▁bitcoin	-9.0379
▁dernière	-9.03931
air	-9.04048
▁défini	-9.04211
▁quartier	-9.04352
anne	-9.0443
▁profit	-9.04457
▁habitants	-9.04457
▁force	-9.0447
▁développe	-9.04557
▁chaîne	-9.04562
Italie	-9.04707
68	-9.0492
▁porte	-9.05151
oir	-9.05157
▁bou	-9.05171
▁21	-9.05188
▁franc	-9.05255
▁mer	-9.05322
▁Londres	-9.05341
▁monétaire	-9.05696
za	-9.05874
▁femme	-9.05911
avi	-9.0604
ième	-9.06225
▁face	-9.0645
74	-9.06458
▁série	-9.06529
▁durant	-9.06616
ancien	-9.06687
▁modèle	-9.06751
64	-9.06773
île	-9.0678
▁Bri	-9.06994
ole	-9.07105
▁climat	-9.0711
▁presse	-9.07127
▁XIXe	-9.07132
aide	-9.07193
▁seul	-9.07267
▁externes	-9.07458
56	-9.07531
▁baisse	-9.07631
autre	-9.07743
▁mouvement	-9.07822
▁Ni	-9.07824
▁différent	-9.07836
▁libér	-9.08046
▁Ne	-9.08099
ica	-9.08182
32	-9.08188
▁bancaire	-9.0826
▁bloc	-9.08273
▁sein	-9.08286
▁sociale	-9.08318
organis	-9.08341
▁1990	-9.08374
▁haut	-9.08495
▁2024	-9.08539
81	-9.08552
ologique	-9.08556
19	-9.087
col	-9.08857
ât	-9.08886
].	-9.08901
ative	-9.08979
acquisition	-9.08988
▁Per	-9.09014
▁Liens	-9.09075
▁allemand	-9.09091
▁journal	-9.0921
bli	-9.0921
-18	-9.09215
67	-9.09216
indice	-9.09273
▁voie	-9.09297
alisation	-9.09455
même	-9.09468
ifié	-9.09486
▁seulement	-9.09524
▁Bi	-9.09782
val	-9.10003
tér	-9.10039
66	-9.10055
55	-9.10162
▁maison	-9.10176
72	-9.10264
espagnol	-9.10329
exploitation	-9.10351
34	-9.10566
ève	-9.10567
▁électrique	-9.1059
62	-9.10694
76	-9.10835
▁nouveaux	-9.10852
ï	-9.10888
▁République	-9.10965
iz	-9.11132
▁Canada	-9.11154
▁présente	-9.1117
étend	-9.11208
\	-9.11229
▁construit	-9.11457
▁faible	-9.11677
▁Sta	-9.11738
idée	-9.11774
▁Cour	-9.12116
ville	-9.12149
{	-9.12277
?	-9.12365
emprunt	-9.12366
▁puissance	-9.12382
▁écrit	-9.12415
82	-9.12432
▁via	-9.12464
79	-9.12465
▁considéré	-9.12636
▁plupart	-9.12671
▁succès	-9.12671
44	-9.12754
▁22	-9.12794
▁cor	-9.12809
▁financier	-9.1281
▁deuxième	-9.12863
▁supérieur	-9.13015
18	-9.13192
han	-9.13204
▁pat	-9.13246
▁Bar	-9.1325
▁[	-9.13288
établissement	-9.1329
▁II	-9.13347
tori	-9.13397
▁23	-9.134
33	-9.13439
11	-9.13462
▁cap	-9.13547
36	-9.13615
▁possède	-9.13669
dia	-9.1368
ête	-9.13742
▁Ver	-9.13816
jo	-9.13855
actif	-9.13946
▁Grand	-9.14003
▁Val	-9.14004
▁jeune	-9.1401
▁George	-9.14172
gène	-9.144
inter	-9.14428
▁haute	-9.14501
ical	-9.1458
▁classe	-9.14581
▁tandis	-9.14639
environnement	-9.14853
▁matière	-9.14953
▁six	-9.15086
▁anti	-9.15306
▁programme	-9.15332
agit	-9.15348
▁manière	-9.15402
▁propos	-9.15448
▁traité	-9.15529
49	-9.15537
▁2004	-9.15624
▁international	-9.15626
▁tonnes	-9.15634
▁pratique	-9.15693
▁certaines	-9.157
▁direction	-9.15789
▁Sh	-9.16042
abord	-9.16119
cédé	-9.16253
07	-9.16412
berg	-9.1643
▁change	-9.16874
51	-9.16963
by	-9.17197
46	-9.17254
▁situation	-9.17526
63	-9.17578
▁fédéral	-9.17646
▁Ainsi	-9.17648
▁28	-9.17916
▁contrat	-9.18012
21	-9.18042
▁dix	-9.18078
▁créée	-9.18136
▁nommé	-9.18176
▁montant	-9.18277
can	-9.18314
▁Act	-9.18315
▁officiel	-9.18328
37	-9.18454
69	-9.18505
▁beaucoup	-9.18615
lire	-9.18641
-1	-9.18706
▁court	-9.1871
▁Ber	-9.18783
▁condition	-9.1886
▁mal	-9.19038
▁publié	-9.19103
▁Min	-9.19107
▁Sur	-9.19146
del	-9.19229
▁principalement	-9.19288
▁atteint	-9.19634
étranger	-9.19757
▁Paul	-9.19979
▁position	-9.20016
mu	-9.20083
▁existe	-9.2013
▁chez	-9.20204
▁aujourd	-9.20374
77	-9.20394
▁Hu	-9.20411
58	-9.20452
▁travaux	-9.2054
▁date	-9.20568
gré	-9.20599
▁cependant	-9.20705
objet	-9.2083
▁canal	-9.20858
▁Cependant	-9.20871
éro	-9.20874
▁laquelle	-9.20962
83	-9.20976
▁chemin	-9.21021
▁populaire	-9.21079
▁question	-9.21148
▁Mont	-9.21157
▁participation	-9.21187
▁Articles	-9.21203
entrée	-9.21222
▁source	-9.21281
ber	-9.21379
▁Jacques	-9.21591
▁somme	-9.21606
▁soutien	-9.21612
39	-9.21653
▁côté	-9.21665
▁régime	-9.21678
▁hommes	-9.21714
▁réalisé	-9.21843
▁industrielle	-9.21935
61	-9.21946
gar	-9.22119
▁problème	-9.22123
▁règle	-9.22207
▁trop	-9.22208
▁Group	-9.22211
média	-9.22239
▁direct	-9.2236
▁mètres	-9.22463
38	-9.22569
école	-9.22617
algré	-9.22963
II	-9.23059
▁Bitcoin	-9.23137
▁commence	-9.23184
▁connexes	-9.23222
▁surtout	-9.23393
57	-9.23407
▁dirige	-9.23435
47	-9.23503
▁petit	-9.23565
apport	-9.23577
car	-9.23628
▁tradition	-9.2369
▁Bou	-9.23772
▁–	-9.23939
électricité	-9.23946
ède	-9.2395
▁perte	-9.24009
nu	-9.24051
▁aucun	-9.24204
54	-9.24303
▁calcul	-9.24376
Est	-9.24491
issent	-9.24508
voy	-9.24572
matique	-9.24579
▁parfois	-9.24593
95	-9.24806
▁Russie	-9.24936
52	-9.25009
▁industriel	-9.25056
▁riche	-9.25244
suiv	-9.25261
nat	-9.25333
▁officielle	-9.25415
iff	-9.25492
▁bâtiment	-9.25803
▁trou	-9.2581
fu	-9.26003
▁parmi	-9.26044
indépendance	-9.26065
pul	-9.26086
▁issu	-9.2609
▁milieu	-9.26179
élection	-9.26216
▁Pri	-9.26266
ick	-9.26395
▁Lors	-9.26499
▁charbon	-9.26635
▁jeu	-9.26693
▁conflit	-9.2681
41	-9.26954
08	-9.26981
▁établi	-9.27201
▁Ka	-9.27232
▁province	-9.2734
q	-9.27523
▁ouvert	-9.27536
ju	-9.27569
▁constitue	-9.27606
24	-9.27659
▁Mon	-9.27676
▁longue	-9.27677
▁composé	-9.27796
▁Sou	-9.27864
59	-9.27931
▁prise	-9.28075
▁libre	-9.28157
▁courant	-9.28174
53	-9.28249
▁résultat	-9.28274
06	-9.28297
▁val	-9.28323
22	-9.28497
objectif	-9.28502
▁2001	-9.28554
▁souhait	-9.28588
▁Michel	-9.2864
▁Grande	-9.28742
▁campagne	-9.28811
▁sécurité	-9.29081
ème	-9.29094
avoir	-9.2939
▁relation	-9.29409
rich	-9.29551
ajout	-9.29658
▁département	-9.29899
▁majeur	-9.29987
▁œuvre	-9.3008
05	-9.30119
▁ailleurs	-9.30121
▁décision	-9.3026
▁technologie	-9.3035
42	-9.30363
▁santé	-9.30368
informatique	-9.30487
▁majorité	-9.3067
▁limite	-9.30685
▁2002	-9.30797
crat	-9.30966
édit	-9.31021
▁2003	-9.31143
nier	-9.31307
▁Pi	-9.31388
▁possible	-9.31451
▁moment	-9.31697
chant	-9.31807
bin	-9.31984
▁200	-9.32044
▁locale	-9.32052
▁telle	-9.32073
43	-9.32131
▁(1	-9.32143
ham	-9.32213
▁représentant	-9.32285
▁numérique	-9.32377
▁réuni	-9.32516
stat	-9.32534
▁moitié	-9.32564
▁utilis	-9.3259
bel	-9.32608
▁sens	-9.3266
èle	-9.3268
02	-9.32755
▁annuel	-9.32759
▁correspond	-9.32891
▁principaux	-9.33078
influence	-9.33219
▁pièce	-9.33313
▁consommation	-9.33345
▁main	-9.33411
isant	-9.3342
augmentation	-9.3369
▁viol	-9.33723
▁permettant	-9.33766
▁Voir	-9.33833
01	-9.33854
▁seule	-9.33869
après	-9.3391
tour	-9.343
23	-9.34341
▁blanc	-9.34502
▁fiscal	-9.3464
▁peuple	-9.34797
▁XXe	-9.34923
ouverture	-9.34937
gh	-9.35015
US	-9.35019
▁Pays	-9.35056
28	-9.35236
▁Robert	-9.35466
▁poste	-9.35713
▁critique	-9.358
impôt	-9.35884
▁1980	-9.36338
engage	-9.36415
utilisation	-9.36464
▁furent	-9.36468
▁autour	-9.36491
▁rapidement	-9.36524
dam	-9.36669
agence	-9.36768
cle	-9.36779
▁donné	-9.36793
▁humain	-9.37063
_{	-9.37208
attaque	-9.37243
▁Chi	-9.37284
▁chinois	-9.37291
▁faut	-9.37366
▁actionnaires	-9.37541
qua	-9.37573
▁royaume	-9.37633
automobile	-9.37731
▁certain	-9.3774
▁retour	-9.37774
▁travaille	-9.37963
▁document	-9.38076
▁meilleur	-9.38076
▁cela	-9.38147
intégr	-9.38227
▁Ann	-9.38422
▁joue	-9.38564
rice	-9.38569
gin	-9.38594
€	-9.38718
▁paiement	-9.38719
▁Belgique	-9.38867
▁refus	-9.38943
▁différentes	-9.38996
▁employé	-9.39002
▁décide	-9.39103
▁Or	-9.39141
▁royal	-9.39168
▁Bank	-9.39172
▁tels	-9.39197
▁petite	-9.39216
▁Ru	-9.39519
▁chute	-9.39533
▁fondée	-9.39635
04	-9.39635
Mar	-9.39671
▁tri	-9.39715
▁continent	-9.39716
99	-9.39782
exploit	-9.39896
▁milliard	-9.3994
▁découvert	-9.40116
▁auprès	-9.40117
▁musique	-9.40169
▁champ	-9.40379
▁aurait	-9.40473
assa	-9.40636
▁but	-9.40744
▁Press	-9.40749
▁1999	-9.40846
▁allemande	-9.40893
▁concept	-9.41037
▁»)	-9.41098
▁pétrole	-9.41331
▁actifs	-9.41391
achat	-9.41432
▁principe	-9.41433
▁généralement	-9.41559
▁simple	-9.4164
script	-9.41674
graphique	-9.41723
van	-9.41786
amp	-9.41962
▁déclare	-9.42053
▁proche	-9.42078
▁personnel	-9.42119
▁Trans	-9.42142
intérieur	-9.42149
▁développé	-9.42251
association	-9.42303
▁bataille	-9.42303
▁avaient	-9.42313
▁Ex	-9.42326
▁russe	-9.42362
▁moderne	-9.42393
▁italien	-9.42424
▁Gi	-9.42601
itude	-9.42625
▁vue	-9.4271
▁charge	-9.42777
usage	-9.42875
▁Avec	-9.43027
▁marchand	-9.43077
hum	-9.43132
▁destiné	-9.43211
évolution	-9.43267
SE	-9.43315
▁suivi	-9.4341
vid	-9.43626
▁dispose	-9.43756
▁Tra	-9.43814
ège	-9.43857
09	-9.43871
▁PIB	-9.43962
▁propose	-9.44085
▁Suisse	-9.44146
▁chargé	-9.44276
enseigne	-9.4444
▁financement	-9.44587
▁tête	-9.44716
▁bar	-9.4477
▁science	-9.44909
Y	-9.44914
▁capacité	-9.44959
▁1970	-9.45373
▁Ed	-9.45485
▁machine	-9.45542
▁Franc	-9.45559
▁indépendant	-9.45594
▁urbain	-9.45755
▁élu	-9.45769
▁cinéma	-9.45964
▁constitution	-9.4602
euil	-9.46085
96	-9.46125
▁Nouvelle	-9.46127
▁façon	-9.46181
▁lorsque	-9.4619
▁privée	-9.46474
98	-9.46569
▁million	-9.46569
illon	-9.46687
▁III	-9.46689
comm	-9.46743
}}	-9.46751
▁serait	-9.47073
gard	-9.47075
ject	-9.47357
▁vote	-9.47403
ulaire	-9.47462
▁communauté	-9.47471
mobili	-9.47505
▁(17	-9.47537
▁ép	-9.4761
▁utilise	-9.47728
▁jamais	-9.47742
ifie	-9.47867
écri	-9.48041
97	-9.48227
bra	-9.48235
était	-9.48317
▁sujet	-9.48396
▁combat	-9.48673
▁structure	-9.48702
▁mettre	-9.48911
03	-9.49014
▁retrait	-9.49019
évo	-9.49199
accord	-9.49265
▁futur	-9.49296
▁associé	-9.49329
▁troisième	-9.49378
▁profond	-9.49393
application	-9.49494
▁suisse	-9.49497
▁journaliste	-9.49893
▁2025	-9.49931
▁basé	-9.49947
▁voit	-9.50144
▁sport	-9.50316
œ	-9.50326
enquête	-9.50451
▁métal	-9.51149
▁propriété	-9.51165
▁passage	-9.51171
▁connaît	-9.51334
▁logiciel	-9.5139
▁souverain	-9.5139
érer	-9.51462
▁garanti	-9.51521
▁besoin	-9.51559
nommé	-9.51571
joint	-9.51601
▁Rou	-9.51954
Ouest	-9.51969
▁concurrence	-9.52011
▁Japon	-9.52012
▁créer	-9.52109
▁navire	-9.52182
▁passé	-9.52387
▁Site	-9.52448
▁distribution	-9.52522
particulièrement	-9.52579
acte	-9.52781
▁justice	-9.52807
▁cherche	-9.52853
accès	-9.52867
$	-9.52871
utilisateur	-9.52984
%	-9.53204
▁300	-9.53404
vel	-9.53432
analyse	-9.53553
▁précis	-9.53598
display	-9.5361
▁El	-9.5362
▁protection	-9.5384
espace	-9.54077
▁présence	-9.54321
▁réforme	-9.54469
IC	-9.54499
▁réserve	-9.54524
étique	-9.5453
...)	-9.5455
▁Français	-9.54593
axe	-9.54691
▁rencontr	-9.54768
venant	-9.54802
▁propriétaire	-9.54826
▁investi	-9.54986
▁conduit	-9.55006
Bas	-9.5516
▁carte	-9.55282
flu	-9.55431
Internet	-9.55586
î	-9.55782
▁communication	-9.55821
▁Philippe	-9.55962
viv	-9.56038
▁gros	-9.56115
▁hausse	-9.56234
▁tir	-9.56275
affaire	-9.56327
▁prendre	-9.56346
▁juge	-9.56473
▁Dès	-9.56588
▁sept	-9.56618
arrière	-9.56646
▁opérations	-9.56666
mul	-9.56686
Asie	-9.56704
▁cuivre	-9.56708
élève	-9.56752
environ	-9.57001
▁Bibliographie	-9.57064
▁colonie	-9.57423
▁Parti	-9.5749
▁compris	-9.57614
▁Comme	-9.57615
▁Port	-9.57664
▁qualité	-9.57684
CE	-9.57709
▁quotidien	-9.57722
▁statut	-9.57725
▁frère	-9.57728
▁vert	-9.57766
▁difficulté	-9.57842
▁version	-9.57852
▁quand	-9.57854
▁réparti	-9.5803
▁formation	-9.58058
▁élections	-9.58064
▁méthode	-9.58082
▁comprend	-9.5829
▁roman	-9.58354
▁désormais	-9.58384
▁stock	-9.58387
ock	-9.58588
▁référence	-9.58592
Institut	-9.58626
▁membre	-9.58976
▁troupes	-9.59115
▁multi	-9.59159
option	-9.59323
▁revend	-9.59346
▁salariés	-9.59354
africain	-9.59538
▁musée	-9.59546
▁naturel	-9.5983
hôtel	-9.59856
▁vingt	-9.59971
▁1997	-9.60087
▁doivent	-9.60396
▁conséquence	-9.60458
▁privé	-9.60553
atrice	-9.60563
▁1960	-9.60935
▁fonde	-9.60973
▁liée	-9.61007
▁précédent	-9.61076
▁marqué	-9.61238
▁république	-9.61262
▁choisi	-9.6133
▁taille	-9.6141
▁scientifique	-9.61449
arrêt	-9.61493
▁nucléaire	-9.61511
▁ressources	-9.61511
▁organisé	-9.61542
▁changement	-9.61649
▁large	-9.61698
▁maladie	-9.62011
▁municipal	-9.62387
▁Company	-9.6245
occasion	-9.62512
▁William	-9.62512
▁bénéfice	-9.62512
▁perd	-9.62654
aval	-9.62757
▁liberté	-9.62891
▁1998	-9.62961
▁protest	-9.62979
▁publie	-9.63081
▁frontière	-9.63144
▁XVIIIe	-9.63207
oxy	-9.63347
▁Monde	-9.63394
▁agricole	-9.63397
▁radio	-9.6355
immobilier	-9.63588
▁interne	-9.6373
▁investisseurs	-9.63781
bit	-9.6385
▁lequel	-9.64008
▁étrangère	-9.64034
▁Éditions	-9.64098
▁lettre	-9.64328
▁route	-9.64472
âge	-9.64473
église	-9.64484
▁montre	-9.64522
▁lutte	-9.64557
▁plein	-9.64559
▁faisant	-9.6464
▁boursier	-9.64868
▁dépend	-9.64871
▁division	-9.64942
▁tiers	-9.64968
▁Commission	-9.65061
▁capitaux	-9.65255
▁réalise	-9.65309
▁candidat	-9.65514
▁catholique	-9.65514
▁XVI	-9.65578
▁bassin	-9.6575
▁véhicule	-9.65774
▁boursière	-9.65969
▁Total	-9.66156
▁Chicago	-9.66164
▁responsable	-9.66491
group	-9.66864
▁retrouve	-9.66885
▁défense	-9.66886
▁favori	-9.67084
œuvre	-9.67275
▁stratégie	-9.67346
▁enfants	-9.67482
▁finalement	-9.67482
▁Bru	-9.68059
▁reprise	-9.68075
Algérie	-9.68173
▁réseaux	-9.68234
▁vendu	-9.68466
▁constitué	-9.68475
▁difficile	-9.68475
▁National	-9.68502
▁permis	-9.6856
▁signe	-9.6867
▁célèbre	-9.68675
▁1995	-9.68899
Autriche	-9.6901
atoire	-9.69118
▁Thomas	-9.69145
assurance	-9.69145
▁Parlement	-9.69164
▁volume	-9.69219
▁rapide	-9.69261
▁voyage	-9.69356
▁Révolution	-9.69608
ordinateur	-9.69753
▁1996	-9.69963
▁député	-9.70023
▁traitement	-9.70092
▁Qua	-9.70225
▁bureau	-9.70309
▁rachat	-9.70328
▁solution	-9.70408
▁respect	-9.7043
▁dirigé	-9.70499
▁directement	-9.7097
▁mandat	-9.7113
historien	-9.71389
▁puits	-9.7143
▁largement	-9.71568
▁logement	-9.71603
▁personne	-9.71675
▁moteur	-9.71676
▁Comp	-9.71837
▁participe	-9.71943
▁nous	-9.72157
Bretagne	-9.72217
▁juridique	-9.72217
▁central	-9.72253
▁institutions	-9.72286
▁fosse	-9.72289
▁texte	-9.72428
▁double	-9.72495
ight	-9.7285
range	-9.72939
▁républicain	-9.73122
▁réussi	-9.7316
installe	-9.73266
▁estime	-9.73394
▁station	-9.73424
▁acquiert	-9.73472
▁400	-9.73499
▁chacun	-9.73723
▁Première	-9.73754
▁autorités	-9.73956
▁producteur	-9.74178
▁Lyon	-9.74199
▁faillite	-9.74318
▁décennie	-9.7446
▁brut	-9.74539
▁théorie	-9.74673
▁Premier	-9.74886
▁salle	-9.74956
▁frais	-9.74958
▁naissance	-9.75029
▁nature	-9.7509
▁victoire	-9.75171
Apple	-9.7526
▁signé	-9.75376
onyme	-9.75381
▁matériel	-9.75386
▁Brésil	-9.75745
▁huit	-9.75784
nov	-9.75864
▁voiture	-9.75945
▁noir	-9.76037
▁plutôt	-9.76104
acier	-9.76135
▁bord	-9.76149
▁augmente	-9.76403
▁côte	-9.76776
▁semaine	-9.76904
obtenir	-9.76973
▁belge	-9.76977
espèce	-9.77045
sidér	-9.77053
▁local	-9.77114
▁romain	-9.77125
▁installé	-9.77337
▁Crédit	-9.77412
▁conclu	-9.7759
▁électronique	-9.77703
économiste	-9.77776
▁Bernard	-9.77849
▁profession	-9.78068
▁Moyen	-9.78524
ingénieur	-9.78585
▁départ	-9.78588
▁bois	-9.79027
▁peintre	-9.7903
▁multipli	-9.79112
▁comporte	-9.79151
▁Direct	-9.79254
▁prévu	-9.79262
▁maritime	-9.79774
▁permettent	-9.79783
électro	-9.79915
▁capitalisation	-9.79964
événement	-9.80149
▁processus	-9.80299
▁figure	-9.80529
ook	-9.80571
oyer	-9.80831
▁rare	-9.80864
arrivée	-9.80902
▁presque	-9.80903
▁Stock	-9.81083
affect	-9.8113
▁prison	-9.81359
attend	-9.81513
▁gauche	-9.81586
France	-9.81595
Amazon	-9.81737
▁Plus	-9.81778
actionnaire	-9.81839
▁occidental	-9.8189
▁Tesla	-9.81903
présent	-9.82134
▁Références	-9.82196
▁reprend	-9.82197
impose	-9.8234
accompagn	-9.82349
▁initial	-9.82349
▁annoncé	-9.82426
▁concurrent	-9.82503
▁température	-9.8258
▁photo	-9.82603
▁présidentielle	-9.82735
Assemblée	-9.82888
▁remplace	-9.82906
▁fabrication	-9.83042
▁dépôt	-9.83043
structur	-9.8315
mètre	-9.83926
▁réduit	-9.83979
▁Berlin	-9.84103
▁semble	-9.84133
importance	-9.84209
ménage	-9.84593
▁camp	-9.84737
hydr	-9.84774
▁commande	-9.8478
inflation	-9.84992
▁heures	-9.84996
opposition	-9.8517
▁contraire	-9.85229
▁assez	-9.85241
▁mineurs	-9.85248
;	-9.85593
expansion	-9.85624
&	-9.85677
igue	-9.85712
▁inférieur	-9.85783
▁suffi	-9.85784
▁ministère	-9.85942
▁Martin	-9.86006
▁concernant	-9.86021
▁médias	-9.86173
▁patrimoine	-9.86261
artisan	-9.86273
▁fondateur	-9.86275
▁désigne	-9.86279
▁ferroviaire	-9.8642
▁remplacé	-9.8642
▁obligations	-9.86719
architecture	-9.8674
▁Exchange	-9.8674
▁manque	-9.86934
▁perdu	-9.87002
▁corps	-9.87081
▁légal	-9.87096
ë	-9.87142
▁exclu	-9.87153
▁complexe	-9.87222
échelle	-9.87256
▁fixe	-9.87303
▁brevet	-9.87384
▁portefeuille	-9.87464
▁terrain	-9.87788
▁reçu	-9.87887
▁super	-9.87959
empire	-9.87987
éviter	-9.88057
▁conserve	-9.88061
▁regroupe	-9.88079
▁théâtre	-9.88112
extérieur	-9.88194
opérateur	-9.88277
▁Toulouse	-9.88438
occupe	-9.88537
impliqu	-9.88564
▁entraîne	-9.88689
▁Toutefois	-9.88765
▁collection	-9.88929
▁détenu	-9.88946
▁grec	-9.88993
▁naturelle	-9.89056
▁Microsoft	-9.89092
▁Street	-9.89094
▁hors	-9.89459
▁garde	-9.89616
▁Google	-9.89669
–	-9.89682
▁répond	-9.89708
▁négociation	-9.89751
▁James	-9.89776
▁global	-9.89834
Alexandr	-9.89834
▁paix	-9.89841
▁barrage	-9.89919
▁Plusieurs	-9.89999
intermédiaire	-9.90082
▁vidéo	-9.9035
▁victime	-9.90497
▁Disney	-9.90497
▁choix	-9.90665
institut	-9.90751
▁Durant	-9.91099
▁quantité	-9.91434
▁bénéficie	-9.91501
▁voix	-9.91506
extrême	-9.91585
▁blockchain	-9.91669
identifi	-9.91733
▁tenu	-9.91939
▁David	-9.91956
▁toutefois	-9.92346
▁gouverneur	-9.92515
▁judiciaire	-9.92515
▁chambre	-9.926
▁magasin	-9.92685
▁rivière	-9.92941
▁contexte	-9.93026
▁Bruxelles	-9.93111
▁provoque	-9.93112
▁Genève	-9.93197
▁assure	-9.93493
▁télévision	-9.93576
▁Tele	-9.93661
autorité	-9.9375
▁canadien	-9.93884
▁classique	-9.93889
▁Washington	-9.93969
installation	-9.94056
empereur	-9.9449
Église	-9.94574
écrivain	-9.94575
▁commission	-9.94661
▁renforce	-9.94661
▁plate	-9.94774
▁Nicolas	-9.94835
▁limité	-9.94872
▁citoyen	-9.95009
▁obtient	-9.95009
▁sociaux	-9.95009
aéroport	-9.951
▁intégré	-9.95172
▁Californie	-9.9527
essentiel	-9.95357
▁plateforme	-9.95359
▁micro	-9.95382
▁caractère	-9.95533
▁Francisco	-9.9562
▁contemporain	-9.95708
▁reconnu	-9.95708
▁présidence	-9.95795
assurer	-9.9587
impact	-9.95882
▁spécifique	-9.95971
▁arrive	-9.96066
▁régl	-9.96285
▁visite	-9.96315
▁poursuit	-9.96413
École	-9.9644
▁disponible	-9.965
▁physique	-9.965
▁quasi	-9.96592
▁Journal	-9.96677
▁potentiel	-9.96765
▁kilomètres	-9.96766
ibilité	-9.97084
▁dépasse	-9.97123
▁réduire	-9.9721
▁bande	-9.97255
▁essentiellement	-9.97299
▁Certains	-9.97388
▁Mexique	-9.97389
▁effectué	-9.97477
▁servi	-9.97636
▁tente	-9.97689
▁pauvre	-9.97835
appareil	-9.97835
▁acquis	-9.9794
▁vaccin	-9.98104
▁Service	-9.98194
▁défend	-9.98207
▁mémoire	-9.98284
▁branche	-9.98284
▁apparaît	-9.98464
▁religion	-9.98554
▁surface	-9.98555
▁véritable	-9.98644
▁vallée	-9.98652
▁obtenu	-9.99006
équivalent	-9.99096
▁salaire	-9.99353
▁modern	-9.99403
▁concerne	-9.99552
▁cœur	-9.99734
▁soient	-9.99734
▁Que	-10.0033
llier	-10.0047
▁bulle	-10.0047
Claude	-10.0051
épargne	-10.0056
▁château	-10.0056
▁prince	-10.0056
▁estimé	-10.006
▁XVIIe	-10.0065
▁centaine	-10.0084
infrastructure	-10.0093
▁indique	-10.0094
entraîn	-10.0101
▁scène	-10.0112
▁progressivement	-10.012
Antoine	-10.013
▁locaux	-10.0131
▁fleuve	-10.0139
étudiant	-10.0148
obligation	-10.016
▁stratégique	-10.0167
▁vaste	-10.0168
▁tension	-10.0177
▁condamné	-10.0195
Orient	-10.0224
▁classé	-10.0227
▁consacré	-10.0242
▁Grèce	-10.0251
▁arabe	-10.0261
▁couleur	-10.027
Louis	-10.0277
▁village	-10.0279
Australie	-10.028
▁menée	-10.0292
▁Québec	-10.0298
assemblée	-10.0308
américain	-10.0324
▁proportion	-10.0326
▁considère	-10.0327
▁complète	-10.0336
value	-10.0342
▁club	-10.0355
▁produire	-10.0364
▁milliers	-10.0364
▁faveur	-10.0364
▁Victor	-10.0365
ailleurs	-10.0386
▁juste	-10.0387
▁durable	-10.039
ouvrir	-10.0428
▁Congrès	-10.0431
▁médecin	-10.0431
▁interdit	-10.0433
▁majoritaire	-10.0479
▁XIV	-10.0498
▁néerlandais	-10.0508
▁partenariat	-10.0508
▁gisement	-10.0508
▁décret	-10.0519
approch	-10.0519
▁numéro	-10.0527
Z	-10.0532
▁lourd	-10.0546
▁parisien	-10.0558
▁universitaire	-10.0566
▁University	-10.0595
▁payer	-10.0605
▁divisé	-10.0619
▁diffusion	-10.0634
▁rouge	-10.0635
▁conseiller	-10.064
▁accueille	-10.0644
▁contribue	-10.067
▁monument	-10.0683
Américain	-10.0712
effectue	-10.0741
▁représenté	-10.0743
quoi	-10.0746
cumul	-10.0751
▁voisin	-10.0752
▁montagne	-10.0761
▁adopté	-10.0771
▁secrétaire	-10.0791
abandon	-10.0803
▁ouvre	-10.0811
▁accepte	-10.0821
▁catégorie	-10.0831
▁saison	-10.0832
▁tendance	-10.0841
▁contenu	-10.0842
▁Pendan	-10.0853
▁éléments	-10.0861
▁statistique	-10.088
▁possibilité	-10.088
▁déficit	-10.089
▁construire	-10.089
▁reçoit	-10.09
▁déclaré	-10.0911
intervention	-10.0921
▁plomb	-10.0921
▁norme	-10.0922
▁japonais	-10.0931
▁fréquent	-10.0961
▁longtemps	-10.0961
éducation	-10.0972
échec	-10.0981
▁budget	-10.0991
▁constructeur	-10.0991
▁universel	-10.0991
▁preuve	-10.1001
Université	-10.1021
islam	-10.1023
▁contraint	-10.1032
polit	-10.1042
oppose	-10.1073
▁palais	-10.1084
▁soumis	-10.1085
▁rédaction	-10.1093
▁Trump	-10.1103
▁Royal	-10.1115
▁canton	-10.1121
effectif	-10.1123
▁Radio	-10.1133
▁introduit	-10.1133
▁rejet	-10.1153
▁Richard	-10.1154
▁tentative	-10.1154
▁derrière	-10.1154
océan	-10.1165
burg	-10.1172
▁circulation	-10.1175
▁Hitler	-10.1175
▁mobile	-10.1195
▁leader	-10.1195
▁dividende	-10.1216
agglomération	-10.1237
▁ouvriers	-10.1237
▁Trois	-10.1238
▁active	-10.1238
▁jet	-10.1255
▁meurt	-10.1257
abilis	-10.1262
▁CAC	-10.1289
▁soldats	-10.1299
′	-10.1308
améliore	-10.1309
▁Prusse	-10.1341
▁vice	-10.139
Organisation	-10.1414
▁distingue	-10.1414
musulman	-10.1425
▁intitulé	-10.1425
▁protocole	-10.1446
▁déclaration	-10.1467
▁performance	-10.1488
▁affirme	-10.149
▁génération	-10.1499
▁massive	-10.151
▁augmenté	-10.152
instrument	-10.1542
▁BNP	-10.1563
▁situe	-10.1572
▁[...]	-10.1595
absence	-10.1599
▁quelque	-10.1604
▁Bordeaux	-10.1606
▁football	-10.1606
existence	-10.1607
▁gagne	-10.1618
▁consul	-10.1622
▁différence	-10.1627
class	-10.1635
▁Constitution	-10.1638
▁résistance	-10.1638
Irlande	-10.1638
▁phase	-10.1638
IBM	-10.1639
▁veut	-10.1643
▁spéculation	-10.1692
▁flotte	-10.1692
▁froid	-10.1714
▁carbone	-10.1714
▁dérivé	-10.1714
▁confiance	-10.1725
▁gamme	-10.1725
▁danger	-10.1729
Amsterdam	-10.1757
▁règne	-10.1779
▁Suez	-10.178
▁favorable	-10.179
écart	-10.1796
▁professeur	-10.1801
▁littérature	-10.1812
▁vapeur	-10.1812
▁phénomène	-10.1823
▁rachète	-10.1823
▁réduction	-10.1823
▁message	-10.1823
Seine	-10.1831
Association	-10.1834
▁support	-10.1834
▁convention	-10.1834
▁discours	-10.1835
▁cycle	-10.1845
▁Times	-10.1847
▁orientale	-10.1867
Office	-10.1867
▁consomma	-10.1871
▁commerciaux	-10.1889
▁magazine	-10.1911
▁procès	-10.1912
▁Paribas	-10.1934
▁exige	-10.1956
dessus	-10.1962
′′	-10.1967
▁détail	-10.1969
▁proximité	-10.1978
▁menace	-10.1978
alimentaire	-10.1979
Calais	-10.1988
▁lesquels	-10.1989
▁vrai	-10.2005
identité	-10.2012
▁commencé	-10.2013
▁conçu	-10.2047
opinion	-10.2057
innovation	-10.2068
▁placé	-10.2091
▁nouvel	-10.2099
Économie	-10.2101
agriculture	-10.2113
▁banquier	-10.2113
▁bibliothèque	-10.2113
▁religieuse	-10.2135
▁General	-10.2135
▁dizaine	-10.2135
▁journaux	-10.2136
▁police	-10.2148
▁cheval	-10.2148
président	-10.2172
source	-10.2189
▁arrêté	-10.2199
strui	-10.22
appui	-10.2209
Airbus	-10.2215
▁forêt	-10.2227
▁racheté	-10.2238
architecte	-10.2249
▁Henry	-10.225
▁composant	-10.225
viendra	-10.2253
▁personnalité	-10.2261
▁soutenu	-10.2261
▁géographique	-10.2272
effondre	-10.2284
▁distinct	-10.2284
▁Qui	-10.2286
▁Trésor	-10.2295
▁World	-10.2307
normal	-10.2326
▁caractéristique	-10.2341
▁prévoit	-10.2342
▁rassembl	-10.2353
▁trafic	-10.2353
▁canaux	-10.2366
initiative	-10.2376
▁EDF	-10.2376
American	-10.2393
▁détruit	-10.2399
évaluation	-10.24
▁parallèle	-10.24
▁soviétique	-10.2411
▁studio	-10.2411
alliance	-10.2425
ologue	-10.2433
▁PDG	-10.2435
▁remonte	-10.2435
Pierre	-10.247
▁papier	-10.2482
Laurent	-10.2483
▁législative	-10.2493
▁responsabilité	-10.2505
Emmanuel	-10.2517
▁volonté	-10.2528
▁maître	-10.2553
▁mauvais	-10.2576
▁revue	-10.2576
▁Chambre	-10.2587
▁Philip	-10.2595
▁énergétique	-10.2599
occupation	-10.2608
expérience	-10.2611
augmenter	-10.2646
▁surveillance	-10.2659
officier	-10.2659
▁engagé	-10.2671
▁signal	-10.2677
apparition	-10.2683
▁Daniel	-10.2684
▁parlementaire	-10.2708
éclat	-10.2737
Écosse	-10.2743
▁Boston	-10.2744
▁abrite	-10.2755
▁Pologne	-10.2767
employ	-10.2771
▁Versailles	-10.2791
▁liquide	-10.2791
▁clair	-10.2794
▁gratuit	-10.2803
honneur	-10.2804
▁Science	-10.2815
▁facile	-10.2819
▁circuit	-10.2827
▁impérial	-10.2828
▁technologique	-10.2852
arrondissement	-10.2876
▁pétrolier	-10.2876
empêche	-10.2876
introduction	-10.2888
esclaves	-10.29
individu	-10.2918
▁pouvant	-10.2938
▁internationaux	-10.295
▁administrative	-10.295
▁agents	-10.2952
▁indien	-10.2955
▁vitesse	-10.2974
▁nationaux	-10.2987
ù	-10.2998
▁Corporation	-10.2999
▁occupé	-10.3024
▁abouti	-10.3025
Académie	-10.3036
Égypte	-10.3036
▁Facebook	-10.3061
▁accusé	-10.3061
▁télécommunica	-10.3061
▁tribunal	-10.3061
invest	-10.3065
▁détient	-10.3075
▁section	-10.3087
▁partenaire	-10.3127
▁transfert	-10.3148
▁défaut	-10.3161
▁varié	-10.3166
▁dollar	-10.3185
▁diplomatique	-10.3186
accident	-10.3198
▁Texas	-10.3199
▁signature	-10.3211
circ	-10.3222
▁transformation	-10.3224
▁épouse	-10.3249
▁participa	-10.3254
envoi	-10.3261
▁Reuters	-10.3262
▁superficie	-10.3287
▁défaite	-10.3313
entretien	-10.3328
consulté	-10.3338
▁Marseille	-10.3338
audiovisuel	-10.3351
Quand	-10.337
▁procédure	-10.3376
▁supplémentaire	-10.3376
▁Nouveau	-10.3377
▁distance	-10.3391
exerce	-10.3404
▁achète	-10.3415
▁Historique	-10.3428
▁contrôl	-10.3429
▁produis	-10.3442
▁entièrement	-10.3454
▁enregistré	-10.3467
▁illustr	-10.3467
▁August	-10.3493
▁tombe	-10.3503
▁remporte	-10.3506
extraction	-10.3545
▁Figaro	-10.3558
cyclo	-10.3559
OCLC	-10.3571
intellectuel	-10.3584
▁personnage	-10.3584
▁transparence	-10.361
▁réglementation	-10.3623
▁Capital	-10.3636
▁chimique	-10.3637
immeuble	-10.365
▁mécanique	-10.365
▁rapproche	-10.3666
aspect	-10.3689
▁francophone	-10.3702
gramme	-10.3708
▁accueilli	-10.3716
▁primaire	-10.3719
▁retire	-10.3741
▁néanmoins	-10.3769
▁Sanofi	-10.3769
▁Blanc	-10.378
▁Electric	-10.3782
▁déplace	-10.3782
▁FMI	-10.3782
▁efficace	-10.3796
▁Culture	-10.3796
▁standard	-10.3836
▁krach	-10.3836
▁réclam	-10.3837
▁religieux	-10.3849
▁considérable	-10.3854
▁converti	-10.3876
applique	-10.3877
▁décidé	-10.3888
▁revanche	-10.389
▁monarchie	-10.3903
▁sanction	-10.3903
▁liquidité	-10.393
▁symbole	-10.393
▁Bourg	-10.3933
▁jardin	-10.3944
▁autorisé	-10.3946
▁cotées	-10.3946
▁peuplé	-10.3947
▁individuel	-10.3952
▁chômage	-10.3957
▁conquête	-10.3958
▁démographique	-10.3958
▁Frédéric	-10.3971
▁adopte	-10.3973
▁magn	-10.3994
▁représentation	-10.3998
▁Grenoble	-10.4012
▁étape	-10.4012
▁syndicat	-10.4026
▁laboratoire	-10.4067
▁réponse	-10.4067
▁diminue	-10.4067
Arabie	-10.4068
▁textile	-10.4081
▁collaboration	-10.4108
▁Warner	-10.4136
administrateur	-10.4164
▁similaire	-10.4164
▁révèle	-10.4164
▁professionnels	-10.4164
▁moindre	-10.4177
Central	-10.4188
▁Méditerranée	-10.4191
▁Donald	-10.4191
▁maintien	-10.4192
▁davantage	-10.4205
▁Colombie	-10.422
esclavage	-10.4233
▁cabinet	-10.4247
▁conférence	-10.4261
▁lendemain	-10.4261
▁protéger	-10.4261
▁renouvelable	-10.4275
▁chanson	-10.4275
▁pôle	-10.429
▁progrès	-10.4317
▁mécanisme	-10.4346
▁Public	-10.4346
Agence	-10.4348
▁connaissance	-10.436
▁émerge	-10.436
▁repose	-10.4363
▁Michael	-10.4374
▁résident	-10.4374
▁nœud	-10.4402
aménagement	-10.4405
invention	-10.4419
▁quatrième	-10.4431
▁liaison	-10.4431
▁Montréal	-10.4431
▁obligatoire	-10.4445
▁respectivement	-10.4459
▁généraux	-10.4474
▁partiellement	-10.4474
▁Sénat	-10.4475
▁pouvait	-10.4488
▁Début	-10.4502
▁monopole	-10.4517
▁Frank	-10.4517
▁Général	-10.4531
▁Venise	-10.4531
▁Politique	-10.4546
▁Black	-10.4546
▁signifie	-10.456
▁zinc	-10.456
▁abandonné	-10.4562
▁dénonce	-10.4562
▁déclenche	-10.4574
aluminium	-10.4589
▁olympique	-10.4589
▁fixé	-10.4595
▁maintenir	-10.4603
▁plainte	-10.4618
▁démocratique	-10.4632
▁contact	-10.4637
▁Turquie	-10.4647
▁fabrique	-10.4647
▁minerai	-10.4647
▁déroule	-10.4664
▁Financial	-10.4691
▁XIII	-10.4691
attentat	-10.4691
accusa	-10.4694
▁mariage	-10.4706
▁permanent	-10.4735
▁fraude	-10.4737
▁essai	-10.4763
▁inspiré	-10.4764
▁touché	-10.4764
▁rémunération	-10.4779
Atlantique	-10.4779
▁Hollande	-10.4794
▁coloniale	-10.4808
▁ottoman	-10.4808
▁aérienne	-10.4809
▁Windows	-10.4823
▁traduit	-10.4823
▁secret	-10.4838
▁Maurice	-10.4838
▁Nigeria	-10.4868
▁Citroën	-10.4898
▁lesquelles	-10.4898
▁sterling	-10.4913
amélioration	-10.4928
▁TotalEnergies	-10.4928
▁compétence	-10.4943
▁territorial	-10.4958
▁978-0-	-10.4958
▁Portugal	-10.4958
▁résidence	-10.4958
exemplaires	-10.4973
▁System	-10.4973
▁conservateur	-10.4973
opposa	-10.4988
▁déposé	-10.5004
intention	-10.5006
▁spectacle	-10.5018
exercice	-10.5018
▁registre	-10.5033
▁vigueur	-10.5033
artillerie	-10.5033
▁Peugeot	-10.5048
▁houille	-10.5048
invasion	-10.5064
incendie	-10.5096
▁concerné	-10.5109
avocat	-10.5109
▁qualifié	-10.5124
▁métropole	-10.514
▁prennent	-10.514
▁suppression	-10.514
▁autrichien	-10.514
▁diffuse	-10.514
connect	-10.5148
▁artificiel	-10.5155
▁Lagardère	-10.517
▁nazi	-10.5193
▁relève	-10.5201
extension	-10.5217
▁matériaux	-10.5232
▁Global	-10.5278
investisseur	-10.5278
▁Allemands	-10.5325
▁diffusé	-10.5325
▁imposé	-10.5343
▁Président	-10.5356
▁reconnaît	-10.5356
immigration	-10.5372
Hongrie	-10.5372
▁Bismarck	-10.5403
▁massif	-10.5409
▁assuré	-10.5419
▁dynastie	-10.5435
▁web	-10.5435
Étienne	-10.5439
▁deviennent	-10.545
▁inauguré	-10.5466
▁dominant	-10.5482
dessous	-10.5491
▁désigné	-10.5499
▁Néanmoins	-10.5514
▁trimestre	-10.5546
▁saoudite	-10.5562
▁auparavant	-10.5593
Argentine	-10.5593
▁budgétaire	-10.5626
▁volontaire	-10.5674
▁Christian	-10.569
▁facilite	-10.569
▁maintenant	-10.569
▁adapté	-10.5706
▁History	-10.5722
»	-10.8866
_	-11.766
<	-11.8513
—	-12.0491
À	-13.0434
