<unk>	0
<s>	0
</s>	0
s	-3.09384
▁the	-3.30756
,	-3.52464
.	-3.5699
▁	-3.73828
▁of	-3.86018
▁and	-4.17381
▁to	-4.20335
▁in	-4.26083
▁a	-4.34805
ed	-4.39576
ing	-4.51504
e	-4.53251
d	-4.64631
-	-4.94528
t	-4.96372
l	-5.05624
o	-5.06673
y	-5.085
a	-5.14028
p	-5.18364
▁(	-5.19569
▁is	-5.22889
▁that	-5.24725
n	-5.32664
▁The	-5.33957
ly	-5.41151
▁as	-5.42131
▁by	-5.43433
▁for	-5.45364
c	-5.48511
r	-5.51105
g	-5.51927
al	-5.52488
▁on	-5.61634
)	-5.65555
▁are	-5.67324
b	-5.68973
▁or	-5.70605
in	-5.70942
or	-5.72147
er	-5.72698
i	-5.75044
f	-5.7631
▁with	-5.85295
▁be	-5.85594
es	-5.85692
'	-5.87073
u	-5.88584
ir	-5.90316
:	-5.91891
▁"	-5.94467
▁A	-5.95864
▁was	-5.98211
▁an	-5.98616
▁S	-5.99247
▁In	-5.99486
▁market	-5.99857
m	-6.02539
re	-6.03031
▁from	-6.03059
ar	-6.03164
en	-6.04649
ation	-6.13829
▁which	-6.13884
it	-6.14693
at	-6.14969
▁not	-6.15884
"	-6.16816
on	-6.1825
ion	-6.22928
ur	-6.23897
ic	-6.24716
S	-6.24809
▁B	-6.25992
w	-6.26089
le	-6.27579
▁M	-6.32328
▁re	-6.34801
h	-6.36078
ent	-6.36155
ri	-6.36825
▁at	-6.37374
ment	-6.38387
▁it	-6.3967
9	-6.40356
▁financial	-6.40457
▁capital	-6.40903
▁price	-6.41721
▁have	-6.42552
1	-6.4278
▁can	-6.45708
▁rate	-6.46186
6	-6.48998
7	-6.50559
k	-6.50852
▁were	-6.52428
3	-6.52454
▁19	-6.52749
2	-6.52909
▁p	-6.53535
▁P	-6.55936
an	-6.57015
ive	-6.57724
ch	-6.58072
▁risk	-6.58836
▁economic	-6.58943
▁other	-6.58975
5	-6.59343
▁banks	-6.6048
8	-6.618
ce	-6.62383
▁stock	-6.6243
).	-6.62867
ra	-6.62931
▁also	-6.63282
–	-6.63757
▁C	-6.64216
▁investment	-6.64528
th	-6.64804
▁value	-6.6541
as	-6.65766
▁its	-6.65808
▁U	-6.66141
▁bank	-6.66144
▁more	-6.71943
▁funds	-6.74261
;	-6.75172
▁de	-6.75333
able	-6.76312
▁b	-6.76445
▁inflation	-6.76459
▁may	-6.76789
▁such	-6.76799
▁has	-6.77239
▁interest	-6.77778
▁policy	-6.78091
A	-6.79191
▁F	-6.7936
4	-6.79635
ol	-6.79859
C	-6.81939
us	-6.82218
age	-6.84179
ers	-6.84256
▁this	-6.84264
st	-6.84436
il	-6.85224
▁E	-6.85252
ity	-6.86403
▁government	-6.87246
▁growth	-6.87425
▁w	-6.87799
▁T	-6.8782
▁than	-6.88025
is	-6.88925
I	-6.89796
▁over	-6.89917
▁Thi	-6.91854
▁1	-6.93014
▁c	-6.94048
▁central	-6.94126
▁Bank	-6.9432
▁crisis	-6.94707
▁money	-6.96275
▁exchange	-6.97666
▁f	-6.99059
▁will	-6.99333
▁un	-6.9961
▁rates	-6.99671
te	-7.00739
),	-7.01403
qu	-7.01864
ro	-7.01989
▁st	-7.02468
▁company	-7.03012
P	-7.03292
ter	-7.03954
▁time	-7.0438
ies	-7.04498
ut	-7.0517
0	-7.05347
▁unemployment	-7.05582
▁con	-7.06195
▁Federa	-7.06515
ul	-7.06643
▁would	-7.07107
▁N	-7.07915
▁companies	-7.08213
▁economy	-7.09332
▁D	-7.09392
im	-7.09573
el	-7.1007
ose	-7.10343
ist	-7.11515
E	-7.12233
vi	-7.12818
▁but	-7.13369
▁had	-7.13484
▁Unit	-7.13702
▁increase	-7.144
▁monetar	-7.14408
▁investors	-7.14886
▁demand	-7.1536
com	-7.15426
▁when	-7.15458
▁Reserve	-7.15598
▁W	-7.16448
▁part	-7.17028
▁GDP	-7.17948
▁m	-7.18508
▁fund	-7.18829
▁high	-7.18925
▁been	-7.19187
▁debt	-7.20511
▁all	-7.2095
▁prices	-7.21386
▁H	-7.21484
▁private	-7.21519
B	-7.21646
▁so	-7.21786
▁G	-7.2213
ve	-7.22938
x	-7.23304
▁pro	-7.23571
▁securities	-7.23572
▁do	-7.23743
▁ex	-7.2509
▁they	-7.25209
▁2008	-7.25671
▁Re	-7.25673
▁out	-7.26169
▁between	-7.28091
un	-7.28203
▁who	-7.28407
M	-7.28991
ig	-7.30007
▁States	-7.30124
R	-7.30409
▁credit	-7.30834
▁assets	-7.3145
▁new	-7.3196
▁large	-7.32099
▁some	-7.32834
▁dur	-7.32874
▁many	-7.33104
▁most	-7.33315
et	-7.33509
▁markets	-7.33654
D	-7.33877
▁L	-7.34143
ver	-7.34172
▁up	-7.3483
▁used	-7.34895
▁these	-7.35537
▁management	-7.35692
tion	-7.35882
▁into	-7.36375
ne	-7.36581
▁e	-7.36881
▁through	-7.37167
▁one	-7.37716
▁trading	-7.37763
▁system	-7.38363
▁2	-7.39145
ors	-7.39846
▁J	-7.40057
▁supply	-7.40184
▁co	-7.40747
ary	-7.40905
ci	-7.41015
▁billion	-7.41107
O	-7.41517
▁It	-7.41959
▁use	-7.42163
▁equity	-7.42301
end	-7.42541
and	-7.43078
▁countries	-7.43611
▁include	-7.43611
v	-7.44435
est	-7.44829
▁income	-7.44917
▁h	-7.45582
um	-7.45803
▁result	-7.46179
F	-7.46414
▁recession	-7.4716
▁public	-7.47488
▁currency	-7.4815
man	-7.48174
em	-7.48781
▁purchase	-7.4915
id	-7.49187
ance	-7.49355
▁For	-7.49827
T	-7.50114
▁form	-7.50408
▁th	-7.50623
▁mortgage	-7.51091
▁under	-7.51182
▁v	-7.51478
ant	-7.51968
▁K	-7.52434
▁business	-7.52566
ated	-7.5285
▁index	-7.52914
▁real	-7.53377
▁work	-7.5368
▁pre	-7.53822
▁per	-7.5428
ight	-7.54417
▁shares	-7.55187
ac	-7.55294
▁target	-7.56085
▁R	-7.56143
▁contract	-7.56145
nce	-7.56756
ck	-7.568
▁example	-7.57168
▁ECB	-7.57168
▁state	-7.57427
▁dis	-7.57568
▁often	-7.58092
▁no	-7.58479
am	-7.58781
ot	-7.58793
ha	-7.58848
▁US	-7.59123
▁asset	-7.59329
per	-7.59607
▁first	-7.59742
▁trade	-7.59881
▁account	-7.60117
term	-7.60356
ta	-7.60568
op	-7.60671
▁I	-7.60875
▁even	-7.61046
om	-7.61054
▁profit	-7.61244
▁effect	-7.61481
0%	-7.61512
▁lead	-7.61622
▁tax	-7.62003
▁firms	-7.6225
▁if	-7.62674
19	-7.62746
ous	-7.63785
".	-7.64176
▁share	-7.64208
▁he	-7.64604
ag	-7.64995
co	-7.65153
20	-7.66082
min	-7.6642
ability	-7.66989
▁De	-7.66989
▁loans	-7.67696
▁because	-7.67908
▁where	-7.67969
▁Ma	-7.68543
▁only	-7.68674
▁sp	-7.69808
out	-7.69811
▁An	-7.69838
▁after	-7.69942
▁long	-7.70015
▁short	-7.7034
▁there	-7.70627
if	-7.70976
▁banking	-7.70977
▁set	-7.71029
▁return	-7.71171
z	-7.71422
ical	-7.7187
▁lower	-7.71997
▁number	-7.7201
tra	-7.72047
ear	-7.72048
ill	-7.72398
led	-7.72856
▁two	-7.73281
▁O	-7.73654
▁trillion	-7.73708
▁2007	-7.73711
▁period	-7.74138
▁European	-7.74188
/	-7.74569
▁higher	-7.74716
▁ca	-7.75002
ian	-7.75034
▁analysis	-7.75873
▁could	-7.75874
▁any	-7.76163
ions	-7.76346
▁level	-7.7663
▁standard	-7.77639
▁Act	-7.77666
00	-7.77706
mp	-7.78719
▁major	-7.79437
▁year	-7.79462
ner	-7.79731
▁pay	-7.79734
▁cash	-7.799
▁increased	-7.79907
▁model	-7.79916
▁goods	-7.80005
▁low	-7.80743
▁futures	-7.80892
▁However	-7.81268
▁institutions	-7.81286
▁years	-7.81722
▁different	-7.82307
N	-7.82421
▁3	-7.82438
ard	-7.83074
▁total	-7.83308
▁about	-7.83609
to	-7.84064
pe	-7.84219
▁ga	-7.84409
▁well	-7.84652
while	-7.8504
▁act	-7.85177
me	-7.85217
▁including	-7.86263
▁venture	-7.8697
▁own	-7.86971
▁amount	-7.8746
up	-7.87696
▁end	-7.87964
▁IS	-7.8822
▁since	-7.88449
ex	-7.88652
ten	-7.88715
▁services	-7.8893
▁decline	-7.89446
▁issue	-7.89638
▁country	-7.89948
▁Financial	-7.90453
▁take	-7.90455
▁provide	-7.90609
ative	-7.90815
▁Economic	-7.9096
▁$1	-7.91078
ally	-7.91371
ry	-7.91678
▁investments	-7.91693
▁Depression	-7.91983
▁V	-7.92067
200	-7.9215
▁di	-7.92174
ized	-7.9227
▁cost	-7.92314
▁Great	-7.925
line	-7.92562
▁Exchange	-7.93017
ud	-7.93073
ual	-7.93569
▁These	-7.93667
iv	-7.93706
▁firm	-7.93722
ward	-7.93856
ating	-7.93894
ke	-7.94295
wa	-7.94776
▁comp	-7.94879
5%	-7.9502
▁housing	-7.95118
▁down	-7.9532
the	-7.95606
▁foreign	-7.95664
act	-7.9577
▁New	-7.96726
▁As	-7.96954
form	-7.97039
ell	-7.97159
▁common	-7.97262
▁bonds	-7.97523
▁mo	-7.97812
ving	-7.98179
▁individual	-7.98352
ting	-7.98715
▁theory	-7.9877
▁made	-7.98939
▁found	-7.99547
▁se	-8.00198
ia	-8.00286
▁r	-8.00338
using	-8.00465
▁both	-8.00571
▁change	-8.00677
BN	-8.00804
▁global	-8.01129
▁due	-8.01131
▁case	-8.01333
ty	-8.01418
▁less	-8.01618
▁sector	-8.01694
▁million	-8.02263
▁2009	-8.02267
▁make	-8.02515
▁known	-8.02572
▁early	-8.02852
▁finance	-8.0341
▁called	-8.03752
▁consumer	-8.03987
hi	-8.04006
▁18	-8.04204
til	-8.04445
▁ETFs	-8.04491
ie	-8.04538
▁bubble	-8.04568
side	-8.04578
▁allow	-8.04583
ory	-8.04598
▁same	-8.05744
ish	-8.05861
▁transaction	-8.06333
▁type	-8.06335
▁reduce	-8.06928
▁output	-8.06929
ities	-8.06951
ound	-8.07016
ber	-8.07532
▁St	-8.08534
$	-8.08545
▁term	-8.08593
▁day	-8.08758
▁like	-8.09193
▁lending	-8.092
▁industry	-8.09345
▁average	-8.09348
▁buy	-8.10014
mer	-8.10472
▁his	-8.1062
ok	-8.10624
over	-8.10647
▁Co	-8.10765
▁cause	-8.10859
▁spending	-8.11198
ization	-8.1132
▁Ch	-8.11744
▁generally	-8.12152
▁future	-8.12334
▁4	-8.1237
."	-8.1272
▁SEC	-8.13085
▁process	-8.13085
▁measure	-8.13656
ong	-8.13763
ure	-8.13769
ite	-8.14182
▁deal	-8.14278
▁involv	-8.14362
▁control	-8.14362
▁each	-8.14427
▁net	-8.14427
▁imp	-8.1507
▁fall	-8.151
L	-8.15137
▁world	-8.15656
▁20	-8.16233
▁people	-8.1631
▁home	-8.16314
▁rise	-8.16362
he	-8.16816
▁represent	-8.16968
▁data	-8.16969
ine	-8.17239
G	-8.17241
▁close	-8.17633
▁American	-8.17812
ther	-8.18252
▁investing	-8.18451
tor	-8.18734
▁changes	-8.19024
▁borrow	-8.1952
▁way	-8.19677
▁did	-8.20282
▁gold	-8.20328
▁based	-8.20458
▁Ro	-8.20563
&	-8.20675
▁default	-8.21009
▁margin	-8.21009
▁policies	-8.21009
▁small	-8.21009
▁curve	-8.21009
▁Fund	-8.21012
▁Some	-8.21016
▁sale	-8.21088
▁economists	-8.21185
▁national	-8.21257
▁Con	-8.21515
▁job	-8.21698
▁much	-8.21749
ma	-8.22019
▁potential	-8.22393
▁mean	-8.22472
▁By	-8.22674
cy	-8.22804
▁To	-8.22876
▁various	-8.23092
▁mutual	-8.23092
▁member	-8.23797
▁began	-8.23803
▁inter	-8.23839
▁5	-8.23975
▁non	-8.24107
Q	-8.24504
▁labor	-8.24506
▁fixed	-8.24506
rate	-8.24855
▁program	-8.2522
▁usually	-8.2522
▁law	-8.25221
▁balance	-8.25221
▁impact	-8.25259
va	-8.25343
ial	-8.25533
▁affect	-8.25939
▁several	-8.2594
▁factors	-8.26037
ti	-8.26245
▁direct	-8.26364
▁dividend	-8.26484
▁point	-8.26664
▁back	-8.26735
▁exist	-8.26908
▁Central	-8.27394
▁information	-8.27398
▁need	-8.27474
U	-8.2785
▁start	-8.28104
▁determin	-8.28131
▁important	-8.28158
▁method	-8.2887
▁typically	-8.2895
▁products	-8.29597
X	-8.29616
—	-8.29616
▁increasing	-8.29616
▁decision	-8.29616
▁before	-8.29616
▁report	-8.29866
▁significant	-8.29912
▁employment	-8.30117
▁corporate	-8.30158
▁commercial	-8.30389
very	-8.30815
▁traded	-8.30967
Y	-8.31126
▁should	-8.31126
▁investor	-8.31446
ide	-8.31488
▁sell	-8.31759
▁run	-8.31836
▁being	-8.32628
▁approach	-8.32658
▁century	-8.32658
▁commodity	-8.32658
▁reserve	-8.32662
▁deposit	-8.32832
▁does	-8.3289
,000	-8.32981
lic	-8.33418
▁research	-8.33434
▁primar	-8.33434
▁option	-8.33437
all	-8.33496
▁order	-8.33537
▁production	-8.33604
▁He	-8.33709
land	-8.34051
one	-8.34129
▁show	-8.34215
▁March	-8.34218
▁2010	-8.3424
▁flow	-8.34308
day	-8.34416
▁Market	-8.35021
▁On	-8.35035
▁within	-8.35072
gu	-8.35462
ever	-8.355
▁Ho	-8.36079
▁September	-8.36596
▁produce	-8.36596
related	-8.36666
ier	-8.36675
50	-8.36831
▁force	-8.37111
▁predict	-8.37402
▁Stock	-8.37403
▁main	-8.37418
▁role	-8.37426
▁Fed	-8.37636
▁There	-8.37661
▁fee	-8.37677
▁see	-8.38022
▁adjust	-8.38215
▁financing	-8.38215
▁activity	-8.38215
▁what	-8.39038
▁liquidity	-8.39086
referred	-8.39184
▁bond	-8.39474
▁structure	-8.39529
▁follow	-8.39587
▁International	-8.39861
▁contribut	-8.39861
▁focus	-8.39861
▁remain	-8.39862
▁buyer	-8.39906
tic	-8.40313
▁costs	-8.40537
equity	-8.40833
low	-8.41299
▁power	-8.41535
▁World	-8.41535
13	-8.41925
▁international	-8.42383
▁consider	-8.42842
▁trend	-8.43237
▁given	-8.43237
▁certain	-8.43265
▁wide	-8.43397
▁levels	-8.43476
▁general	-8.43646
▁Pro	-8.439
▁must	-8.44104
▁three	-8.44106
▁open	-8.44114
cross	-8.44115
▁subprime	-8.44128
▁2000	-8.44161
▁dividends	-8.44314
▁La	-8.44944
▁against	-8.44969
▁rule	-8.44988
▁mortgages	-8.45197
ang	-8.45812
▁support	-8.45846
▁Monetar	-8.45846
▁buyout	-8.45912
holder	-8.46184
ily	-8.46493
ness	-8.46713
▁became	-8.46731
▁influence	-8.46731
▁paid	-8.46734
▁2006	-8.46738
▁help	-8.46741
▁War	-8.46745
j	-8.4692
▁largest	-8.4717
▁invest	-8.47375
▁sub	-8.47824
K	-8.47942
▁ratio	-8.48037
▁employ	-8.4819
vent	-8.48396
ism	-8.48399
▁fiscal	-8.48525
ible	-8.48562
▁receiv	-8.48582
▁Com	-8.48833
▁product	-8.49259
▁2012	-8.49434
▁sta	-8.49612
▁regulation	-8.49848
▁specific	-8.50187
▁how	-8.5033
▁Securities	-8.50351
▁instrument	-8.50351
▁manager	-8.50351
{	-8.50353
}	-8.50353
▁National	-8.50356
▁payments	-8.50457
ize	-8.50477
▁reach	-8.5054
H	-8.50745
▁terms	-8.51057
▁ge	-8.51181
▁models	-8.51229
▁current	-8.51277
▁quantity	-8.51277
▁technical	-8.51277
▁sign	-8.51279
▁shareholders	-8.51279
▁household	-8.5128
▁Index	-8.51282
▁rather	-8.51282
▁become	-8.51307
▁failure	-8.51313
▁following	-8.51586
ach	-8.51806
▁loss	-8.51875
▁developed	-8.52005
▁According	-8.52212
▁acquisition	-8.52212
▁maintain	-8.52212
▁created	-8.52409
▁particular	-8.52491
▁later	-8.5251
10	-8.52634
▁position	-8.52662
▁class	-8.52819
▁effective	-8.52987
▁operations	-8.53155
▁portfolio	-8.53155
▁project	-8.53198
▁10	-8.53843
▁refer	-8.53974
▁grow	-8.53986
tract	-8.54094
▁negative	-8.54108
▁annual	-8.5411
▁another	-8.5411
▁Investment	-8.54166
▁measures	-8.54204
fin	-8.54899
▁initial	-8.55074
▁among	-8.55076
▁required	-8.55981
▁decrease	-8.55984
▁fail	-8.56006
row	-8.56024
▁function	-8.5604
▁held	-8.56058
▁near	-8.56088
11	-8.56133
▁losses	-8.56392
▁funding	-8.56482
▁relative	-8.56867
▁broker	-8.5702
▁merger	-8.57021
▁development	-8.57125
ful	-8.57426
month	-8.5797
▁consumption	-8.5801
▁suggest	-8.5801
▁federal	-8.58011
▁either	-8.58011
▁offer	-8.58184
▁conditions	-8.58271
▁selling	-8.58452
tro	-8.58463
▁loan	-8.5848
V	-8.5863
ture	-8.58898
▁available	-8.59011
▁calculat	-8.59011
▁above	-8.59011
▁When	-8.59013
▁Commission	-8.59021
▁performance	-8.59041
cent	-8.59527
not	-8.59677
▁fi	-8.59925
cre	-8.60014
▁practice	-8.60021
▁problem	-8.60021
▁quarter	-8.60021
▁Other	-8.60092
▁go	-8.60098
▁Lo	-8.60443
▁caused	-8.60587
count	-8.60691
▁Dur	-8.60933
▁occur	-8.61034
▁speculat	-8.61041
▁require	-8.61095
18	-8.61403
▁$2	-8.61674
The	-8.61865
▁2011	-8.62104
▁months	-8.62185
▁economies	-8.63114
▁security	-8.63114
▁Risk	-8.63114
▁study	-8.63115
▁book	-8.63115
▁sold	-8.63145
▁Di	-8.63336
▁considered	-8.63599
▁full	-8.63696
▁spread	-8.63795
▁making	-8.63898
▁businesses	-8.64138
her	-8.64143
▁dollar	-8.64166
▁paper	-8.64169
▁expectations	-8.64172
▁around	-8.64186
▁person	-8.64197
▁view	-8.64316
▁plan	-8.64392
▁below	-8.6453
▁&	-8.64682
lan	-8.65115
▁John	-8.6523
▁York	-8.6523
▁macroeconomic	-8.6523
▁quantitative	-8.6523
▁regulator	-8.6523
▁key	-8.65261
▁action	-8.65769
▁established	-8.6578
▁continue	-8.65989
lthough	-8.66305
▁aggregate	-8.66305
▁corporation	-8.66305
▁political	-8.66305
▁strong	-8.66306
ugh	-8.66317
▁unemployed	-8.66333
▁Whi	-8.66545
counter	-8.66666
▁workers	-8.66687
▁place	-8.66939
▁January	-8.67392
▁benefit	-8.67392
▁resources	-8.67392
▁yield	-8.67392
▁peak	-8.67392
▁possible	-8.67576
▁thus	-8.6781
2%	-8.68255
▁currencies	-8.68491
▁explain	-8.68491
▁acquire	-8.68491
▁derivatives	-8.68492
▁board	-8.68493
▁fell	-8.68898
view	-8.69455
▁holding	-8.69575
▁revenue	-8.69602
▁turn	-8.69603
▁1990	-8.69604
▁Wall	-8.69727
25	-8.7002
▁One	-8.70189
▁Le	-8.70434
▁we	-8.70553
▁Japan	-8.70726
▁describ	-8.70726
▁commodities	-8.70726
▁deficit	-8.70726
▁Street	-8.70726
ton	-8.70872
▁directly	-8.71442
backed	-8.7156
uch	-8.71764
▁seller	-8.71791
60	-8.71815
▁easing	-8.71872
ified	-8.71874
▁few	-8.71875
▁subject	-8.71877
▁17	-8.72165
▁govern	-8.72842
▁trans	-8.73011
▁similar	-8.73012
▁IPO	-8.73012
▁though	-8.73012
▁simpl	-8.73013
▁right	-8.73155
▁war	-8.7371
▁hold	-8.73954
▁cycle	-8.74174
▁experience	-8.74174
▁strategies	-8.74174
▁crises	-8.74175
▁further	-8.74175
▁recover	-8.7419
▁traders	-8.74232
▁ETF	-8.7433
off	-8.74332
ick	-8.74644
▁expected	-8.74971
▁sha	-8.74984
▁Treasury	-8.75351
▁strategy	-8.75351
▁just	-8.75415
ection	-8.75729
▁Ex	-8.75846
▁whe	-8.76014
14	-8.76165
▁System	-8.76541
▁however	-8.76573
ade	-8.76775
▁October	-8.77746
▁objective	-8.77746
▁previous	-8.77746
▁rating	-8.77864
▁distribution	-8.77886
3%	-8.78078
40	-8.78141
mar	-8.78558
▁Europe	-8.78852
▁publish	-8.78966
▁implement	-8.78966
▁history	-8.78967
▁legal	-8.78968
▁find	-8.79021
▁pass	-8.79039
▁every	-8.79138
▁hand	-8.79209
▁Th	-8.79382
▁via	-8.80153
▁avoid	-8.802
▁expansion	-8.802
▁shift	-8.802
▁variable	-8.802
▁human	-8.80201
▁Bond	-8.80226
▁earnings	-8.80233
▁offering	-8.80335
▁buying	-8.8119
▁If	-8.81298
▁collapse	-8.8145
▁technology	-8.8145
▁associat	-8.8145
▁Robert	-8.81451
▁social	-8.81453
W	-8.8159
part	-8.82293
▁announced	-8.82716
▁equilibrium	-8.82716
▁official	-8.82716
▁History	-8.82716
▁according	-8.82716
▁difference	-8.82717
▁drop	-8.82717
▁equal	-8.82723
▁limit	-8.82738
▁addition	-8.83188
▁late	-8.83602
▁believe	-8.83998
▁deflation	-8.83998
▁crash	-8.83998
▁keep	-8.83999
▁wealth	-8.83999
▁excess	-8.84
▁four	-8.84007
▁underlying	-8.84017
▁invested	-8.84515
▁likely	-8.84972
▁=	-8.85063
▁ownership	-8.85297
▁traditional	-8.85297
▁deliver	-8.85298
▁tend	-8.8543
ential	-8.85458
▁978-0	-8.86119
▁provid	-8.8621
▁See	-8.865
less	-8.86548
▁Futures	-8.86613
▁custom	-8.86613
▁reflect	-8.86613
▁relationship	-8.86613
▁last	-8.86615
▁July	-8.86621
▁2013	-8.8666
▁percentage	-8.86693
▁independent	-8.87061
▁met	-8.87286
▁leveraged	-8.87514
▁forward	-8.87712
▁December	-8.87946
▁attempt	-8.87946
▁labour	-8.87946
▁modern	-8.87946
▁positive	-8.87946
▁insurance	-8.87947
▁decade	-8.87947
▁transfer	-8.87948
▁name	-8.87961
▁Many	-8.87968
30	-8.87978
based	-8.88301
4%	-8.88407
run	-8.88646
▁additional	-8.88795
▁reported	-8.88846
▁issued	-8.89174
November	-8.89297
▁Economist	-8.89297
▁charge	-8.89297
▁population	-8.89297
▁Venture	-8.89298
▁adopt	-8.893
▁June	-8.89301
pol	-8.89341
▁unit	-8.89641
▁England	-8.90667
▁environment	-8.90667
▁improve	-8.90667
▁Board	-8.90671
author	-8.9068
▁list	-8.90761
▁1980	-8.90801
ably	-8.90807
▁slow	-8.90845
▁independence	-8.90877
▁date	-8.90923
▁create	-8.91272
▁argued	-8.91431
still	-8.91458
▁depend	-8.91542
log	-8.91554
1%	-8.91631
▁good	-8.91715
▁agencies	-8.92056
▁group	-8.92056
▁Further	-8.92057
▁health	-8.92058
▁clear	-8.92062
▁compared	-8.92064
(	-8.92488
▁idea	-8.92844
▁second	-8.93402
▁import	-8.93415
▁limited	-8.93441
▁behavior	-8.93465
▁budget	-8.93465
▁inequality	-8.93465
▁valuation	-8.93465
▁April	-8.93465
▁track	-8.93469
▁requirements	-8.93475
▁better	-8.93479
▁play	-8.93614
▁VC	-8.93772
▁far	-8.93922
▁leverage	-8.93923
▁fil	-8.94212
▁institutional	-8.949
▁After	-8.949
▁meet	-8.94906
▁lend	-8.95186
▁five	-8.9609
▁Kingdom	-8.96342
▁collateral	-8.96342
▁depression	-8.96342
▁safe	-8.96344
▁Money	-8.96345
▁QE	-8.96346
▁Keynesian	-8.96367
▁discount	-8.96419
▁Government	-8.96454
▁India	-8.9659
▁recent	-8.9662
▁payment	-8.96725
▁factor	-8.96734
▁estimated	-8.9732
▁client	-8.97813
▁regard	-8.97815
▁1933	-8.97816
▁reason	-8.97818
▁oil	-8.97941
▁size	-8.97987
▁greater	-8.98024
22	-8.98326
J	-8.98412
▁come	-8.98595
▁May	-8.98646
▁domestic	-8.99306
▁industrial	-8.99306
▁generate	-8.99307
▁itself	-8.99309
▁Union	-8.99316
▁organization	-8.99354
lay	-8.99392
work	-8.99958
istic	-9.00159
▁Capital	-9.00821
▁China	-9.00826
▁range	-9.0083
▁hedge	-9.00881
▁overall	-9.01044
–19	-9.01349
80	-9.01755
serv	-9.01984
▁fundamental	-9.02359
▁look	-9.02359
▁euro	-9.0237
▁2020	-9.02477
▁lenders	-9.02492
▁Gree	-9.02608
▁compet	-9.0269
▁mis	-9.02812
most	-9.0313
70	-9.03356
▁President	-9.03483
▁nation	-9.03569
▁claim	-9.03922
▁therefore	-9.03922
▁normal	-9.03922
▁especially	-9.03922
▁estate	-9.03922
▁1929	-9.03925
▁From	-9.03926
▁With	-9.03927
▁Paul	-9.03928
▁Gold	-9.03929
▁prior	-9.03929
▁matur	-9.03968
6%	-9.04051
▁1930	-9.04098
▁Over	-9.04172
▁seek	-9.04219
▁II	-9.04369
like	-9.04716
▁significantly	-9.0488
ship	-9.05493
▁activities	-9.05509
▁record	-9.05509
▁zero	-9.05509
ification	-9.05511
▁2005	-9.0552
▁develop	-9.05692
▁raised	-9.06396
ject	-9.06485
▁longer	-9.06812
▁reli	-9.06923
▁achieve	-9.07122
▁difficult	-9.07122
▁expenditure	-9.07122
▁nominal	-9.07123
▁expand	-9.07124
▁agreement	-9.07259
▁Part	-9.07278
stitution	-9.07435
▁cut	-9.07971
bank	-9.08025
dge	-9.08754
▁University	-9.08761
▁response	-9.08761
▁situation	-9.08761
▁sheet	-9.08761
▁indices	-9.08762
▁least	-9.08762
▁Finance	-9.08763
▁boom	-9.08765
▁half	-9.08768
▁post	-9.08774
▁Most	-9.08775
▁present	-9.08799
▁office	-9.08802
8%	-9.0884
▁2019	-9.08891
▁borrowers	-9.09063
time	-9.09093
▁Germany	-9.0913
▁stability	-9.09143
▁cover	-9.09409
▁call	-9.09449
▁instead	-9.10428
▁obligation	-9.10428
▁regulate	-9.10428
▁lack	-9.10428
▁advis	-9.10432
▁introduced	-9.10443
sometimes	-9.10541
▁movement	-9.10582
▁goal	-9.11103
chang	-9.1193
▁liquid	-9.12016
▁enabl	-9.12053
▁Congress	-9.12123
▁build	-9.12123
▁participation	-9.12123
▁local	-9.12123
▁concern	-9.12123
▁basis	-9.12125
▁self	-9.12132
▁varie	-9.12133
▁secondary	-9.12198
elect	-9.1318
down	-9.13658
▁London	-9.13847
▁productivity	-9.13847
▁original	-9.13847
▁said	-9.1385
▁region	-9.13875
▁2024	-9.13877
▁deriv	-9.13879
▁final	-9.14006
▁1970	-9.14015
–20	-9.14346
24	-9.14429
▁raise	-9.1463
▁argue	-9.14631
particularly	-9.15077
▁percent	-9.15596
▁Management	-9.15601
▁guarantee	-9.15601
▁volume	-9.15601
▁design	-9.15601
▁approximate	-9.15602
▁lost	-9.15603
▁prevent	-9.15709
▁rose	-9.15956
▁allocat	-9.16063
7%	-9.16453
▁hav	-9.1652
▁America	-9.16897
▁now	-9.16944
▁February	-9.17387
▁framework	-9.17387
▁Crisis	-9.17387
▁auction	-9.17387
▁concept	-9.17387
▁Unemployment	-9.17387
▁broad	-9.17387
▁incentive	-9.17391
▁convert	-9.174
▁Asset	-9.17402
▁rising	-9.17412
erfect	-9.18266
dow	-9.18613
▁David	-9.19205
▁Graham	-9.19205
▁encourage	-9.19205
▁reducing	-9.19205
▁access	-9.19205
▁defined	-9.19208
▁rational	-9.19225
▁consist	-9.19237
style	-9.19397
▁expect	-9.19788
▁bid	-9.19933
▁Not	-9.19979
▁capita	-9.20419
%	-9.20617
special	-9.20927
▁British	-9.21057
▁Journal	-9.21057
▁natural	-9.21057
▁popular	-9.21057
▁respect	-9.21057
▁sovereign	-9.21057
▁technological	-9.21057
▁quality	-9.21057
▁2015	-9.21058
▁life	-9.21058
▁originat	-9.21058
▁wrote	-9.21058
▁complete	-9.21061
▁chart	-9.21064
▁2004	-9.21067
▁third	-9.21073
▁you	-9.21138
▁Euro	-9.21141
▁perform	-9.21191
▁assum	-9.21198
▁move	-9.21214
▁estimat	-9.21685
PI	-9.22459
▁fact	-9.22547
▁Australia	-9.22944
▁Company	-9.22944
▁Private	-9.22944
▁expense	-9.22944
▁purchasing	-9.22944
Frank	-9.22944
▁component	-9.22945
▁2001	-9.22959
▁successful	-9.22959
▁earn	-9.22967
▁$7	-9.23053
back	-9.23283
▁alternative	-9.24867
▁definition	-9.24867
▁energy	-9.24867
▁outstanding	-9.24867
▁shock	-9.24867
▁supervis	-9.24867
▁Under	-9.24867
▁mitigat	-9.24867
▁2021	-9.24868
▁worth	-9.24872
▁past	-9.24895
▁creation	-9.25043
▁That	-9.25218
▁sum	-9.25529
▁mid	-9.26077
direct	-9.26414
traded	-9.26472
▁Commodity	-9.26828
▁Corporation	-9.26828
▁address	-9.26828
▁foreclosure	-9.26828
▁pattern	-9.26828
▁physical	-9.26828
▁stabiliz	-9.26828
▁survey	-9.26828
▁studies	-9.26828
▁pressure	-9.26828
▁figure	-9.26828
▁2014	-9.26878
▁free	-9.27115
▁500	-9.27605
▁accept	-9.27939
▁economist	-9.28311
izing	-9.288
▁agree	-9.28806
▁Global	-9.28828
▁already	-9.28828
▁consequence	-9.28828
▁industries	-9.28828
▁proportion	-9.28828
▁reduction	-9.28828
▁rapid	-9.28828
▁sustain	-9.28828
▁competition	-9.28829
▁retail	-9.28829
▁week	-9.28831
▁house	-9.28847
scale	-9.28863
▁along	-9.28886
ology	-9.28912
▁$4	-9.29005
▁EU	-9.29127
continu	-9.29428
▁serve	-9.29635
▁enter	-9.3042
▁August	-9.30869
▁Fannie	-9.30869
▁conduct	-9.30869
▁exports	-9.30869
▁maxim	-9.30869
▁surplus	-9.30869
▁gross	-9.30869
▁contrast	-9.30869
▁$3	-9.31067
▁References	-9.32952
▁enterprise	-9.32952
▁launch	-9.32952
▁advance	-9.32952
▁historical	-9.32952
▁appear	-9.32952
▁taking	-9.32952
▁pension	-9.32952
▁living	-9.32953
▁commission	-9.32954
▁2022	-9.32995
mission	-9.33066
▁protection	-9.33086
classical	-9.33703
▁mark	-9.35016
▁necessar	-9.35079
▁always	-9.35079
▁little	-9.35079
▁participants	-9.35079
▁purpose	-9.35079
▁restrict	-9.35079
▁securitiz	-9.35079
▁Price	-9.35084
▁Thus	-9.35297
▁came	-9.35305
▁$5	-9.35379
▁replac	-9.36371
market	-9.37068
ecause	-9.37129
sufficient	-9.37253
▁Business	-9.37253
▁Council	-9.37253
▁executive	-9.37253
▁favor	-9.37253
▁mechanism	-9.37253
▁school	-9.37253
▁Inflation	-9.37253
▁Research	-9.37253
▁material	-9.37253
▁Group	-9.37254
▁regime	-9.37254
▁assumption	-9.37254
▁complex	-9.37255
▁France	-9.37257
▁Press	-9.37263
▁Investors	-9.37314
▁links	-9.37336
▁$6	-9.37444
▁innovation	-9.37487
▁Govern	-9.39306
efficient	-9.39476
▁Association	-9.39476
▁IndyMac	-9.39476
▁climate	-9.39476
▁evidence	-9.39476
▁exposure	-9.39476
▁obtain	-9.39476
▁declar	-9.39476
▁General	-9.39476
▁CDO	-9.39476
▁six	-9.39479
sponsor	-9.39485
▁exceed	-9.3949
▁South	-9.39499
▁single	-9.39521
▁startup	-9.39598
▁president	-9.41073
▁Bernanke	-9.41748
▁Black	-9.41748
▁Canada	-9.41748
▁Freddie	-9.41748
▁Industrial	-9.41748
▁education	-9.41748
▁evaluat	-9.41748
▁fluctuat	-9.41748
▁progress	-9.41748
▁themselves	-9.41748
▁Consumer	-9.41748
▁Another	-9.4175
▁entire	-9.4175
▁instance	-9.41762
▁say	-9.41797
▁service	-9.41818
▁mass	-9.41837
▁etc	-9.41861
▁formula	-9.42086
q	-9.4279
▁base	-9.43132
▁great	-9.4374
agricultur	-9.44074
▁Chicago	-9.44074
▁Corporate	-9.44074
▁downturn	-9.44074
▁eventually	-9.44074
▁proposed	-9.44074
▁technique	-9.44074
▁trust	-9.44074
▁operating	-9.44074
▁property	-9.44074
▁Credit	-9.44074
makers	-9.45403
▁success	-9.46435
▁responsib	-9.46453
▁External	-9.46455
▁Macroeconomic	-9.46455
▁beginning	-9.46455
▁division	-9.46455
▁effort	-9.46455
▁feature	-9.46455
▁forecast	-9.46455
▁substantial	-9.46455
▁Growth	-9.46455
▁engage	-9.46455
Morgan	-9.46456
▁Interest	-9.46457
▁women	-9.46457
▁occurred	-9.46472
▁select	-9.46731
relatively	-9.46837
▁document	-9.47218
▁creat	-9.47526
▁establish	-9.47635
▁Bureau	-9.48894
▁emerging	-9.48894
▁quickly	-9.48894
▁vehicle	-9.48894
▁double	-9.48894
▁fraud	-9.48895
▁promot	-9.48896
▁Share	-9.48899
▁entities	-9.48911
▁2003	-9.48912
▁revers	-9.48973
▁appropriate	-9.51394
▁underwriting	-9.51394
▁agency	-9.51394
▁knowledge	-9.51394
▁suffer	-9.51394
▁weak	-9.51396
▁authority	-9.51399
▁computer	-9.514
▁decid	-9.51469
▁test	-9.51587
▁All	-9.5195
iddle	-9.5304
▁Friedman	-9.53958
▁Recession	-9.53958
▁capacity	-9.53958
▁confidence	-9.53958
▁correspond	-9.53958
▁immediate	-9.53958
▁volatility	-9.53958
▁join	-9.53958
▁question	-9.53958
▁competitive	-9.53959
▁think	-9.53962
▁treat	-9.53966
▁bankruptcy	-9.53974
▁tight	-9.5408
▁978-	-9.54933
ctually	-9.56517
▁Keynes	-9.56545
▁enforce	-9.5659
▁Analysis	-9.5659
▁bought	-9.5659
▁liabilities	-9.5659
▁statistical	-9.5659
▁subsequent	-9.5659
▁Policy	-9.5659
▁observ	-9.5659
▁food	-9.5659
▁multiple	-9.56591
▁bills	-9.56626
▁fast	-9.56848
weight	-9.58006
▁differ	-9.58637
▁Asia	-9.58793
▁distribut	-9.58978
▁Africa	-9.59292
▁separate	-9.59292
▁nature	-9.59293
▁daily	-9.59293
▁next	-9.59293
▁1932	-9.59297
▁threat	-9.59297
▁series	-9.59302
▁internal	-9.59314
value	-9.5967
▁German	-9.61447
▁Invest	-9.61833
▁Britain	-9.6207
▁empirical	-9.6207
▁facilitat	-9.6207
▁hypothesis	-9.6207
▁preference	-9.6207
▁article	-9.6207
▁managing	-9.6207
▁constant	-9.62071
▁silver	-9.62071
▁multi	-9.62071
▁examine	-9.62073
▁Work	-9.62076
correct	-9.62087
▁team	-9.62089
▁panic	-9.62105
▁investigat	-9.62157
called	-9.62548
link	-9.64873
NYSE	-9.64927
structural	-9.64927
▁Buffett	-9.64927
▁Second	-9.64927
▁William	-9.64927
▁advantage	-9.64927
▁minimum	-9.64927
▁principle	-9.64927
▁stimulus	-9.64927
▁enough	-9.64927
▁homeowners	-9.64927
▁prospect	-9.64927
▁pricing	-9.64928
▁Dodd	-9.64928
▁2017	-9.64928
uantitative	-9.64929
▁kind	-9.64929
▁reading	-9.64929
front	-9.64932
▁severe	-9.64936
▁Trade	-9.64955
▁bring	-9.65014
▁ju	-9.65124
=	-9.65448
depository	-9.67245
hold	-9.67386
onsequently	-9.67868
▁Technical	-9.67868
▁accumulat	-9.67868
▁advocat	-9.67868
▁principal	-9.67868
▁regular	-9.67868
▁statistics	-9.67868
emporary	-9.67869
▁Charles	-9.67869
▁utility	-9.67869
▁optim	-9.67869
▁Thomas	-9.67869
▁Mutual	-9.67869
▁collect	-9.67869
roughly	-9.6787
▁mandate	-9.67872
load	-9.67872
▁retain	-9.67874
▁fuel	-9.67874
▁leav	-9.67884
▁compensat	-9.67901
economic	-9.68492
▁drive	-9.70786
▁Mark	-9.70841
▁Additionally	-9.70899
▁acquiring	-9.70899
▁opportunities	-9.70899
▁understand	-9.70899
▁2023	-9.709
▁except	-9.709
▁Equity	-9.709
▁contain	-9.70901
▁portion	-9.70904
▁basic	-9.70905
▁First	-9.70906
▁burst	-9.70907
OTC	-9.7091
▁State	-9.72635
residential	-9.72681
registered	-9.74024
▁Committee	-9.74024
▁Richard	-9.74024
▁applied	-9.74024
▁approv	-9.74024
▁perspective	-9.74024
▁professional	-9.74024
▁Standard	-9.74024
▁aspect	-9.74024
▁together	-9.74024
▁issuance	-9.74024
rought	-9.74026
▁Russia	-9.74026
▁Option	-9.74027
▁secure	-9.74028
▁1997	-9.7403
▁Panic	-9.74031
▁Open	-9.74036
print	-9.74109
displa	-9.74344
making	-9.74841
▁character	-9.76158
struction	-9.77168
▁Greenspan	-9.7725
▁Therefore	-9.7725
▁choice	-9.7725
▁communicat	-9.7725
▁conflict	-9.7725
▁criteria	-9.7725
▁dramatic	-9.7725
▁electronic	-9.7725
▁external	-9.7725
▁identify	-9.7725
▁legislat	-9.7725
▁manufacturing	-9.7725
▁operational	-9.7725
▁solution	-9.7725
▁trigger	-9.7725
relevant	-9.7725
▁Stearns	-9.7725
▁withdraw	-9.7725
▁letter	-9.7725
▁James	-9.77252
▁Labor	-9.77254
▁1998	-9.77255
▁issuing	-9.77263
corporate	-9.78169
ertain	-9.78432
▁Even	-9.79575
▁Earl	-9.80392
introduc	-9.80553
▁Eurozone	-9.80583
▁Office	-9.80583
▁Product	-9.80583
▁Similar	-9.80583
▁accurate	-9.80583
▁application	-9.80583
▁efficiency	-9.80583
▁families	-9.80583
▁strategic	-9.80583
▁afford	-9.80583
▁cheap	-9.80583
heavily	-9.80584
▁numer	-9.80584
▁left	-9.80585
▁CDS	-9.80586
▁carry	-9.80586
▁apply	-9.80586
▁brand	-9.80589
▁1999	-9.8059
prime	-9.80614
▁seven	-9.80697
driven	-9.80743
▁decreas	-9.80779
▁media	-9.81494
GDP	-9.81624
location	-9.83208
oreign	-9.83962
▁depreciat	-9.84031
LTRO	-9.84031
structuring	-9.84031
▁Facility	-9.84031
▁Krugman	-9.84031
▁Parliament	-9.84031
▁Supply	-9.84031
▁bailout	-9.84031
▁challeng	-9.84031
▁commitments	-9.84031
▁consensus	-9.84031
▁equivalent	-9.84031
▁explanation	-9.84031
▁opposed	-9.84031
▁premium	-9.84031
▁recognize	-9.84031
▁uncertainty	-9.84031
▁Inquiry	-9.84031
▁Value	-9.84031
▁analyz	-9.84031
▁attribut	-9.84031
▁Lehman	-9.84031
▁Trading	-9.84031
▁worldwide	-9.84031
▁Merger	-9.84032
▁Dutch	-9.84033
▁extend	-9.84042
▁retire	-9.8405
stream	-9.84066
▁Term	-9.84144
▁condition	-9.86658
▁Companies	-9.87603
▁Historical	-9.87603
▁Institute	-9.87603
▁Program	-9.87603
▁emergenc	-9.87603
▁happen	-9.87603
▁opportunity	-9.87603
▁pandemic	-9.87603
▁respond	-9.87603
▁underwriter	-9.87603
▁School	-9.87603
▁distinct	-9.87603
▁medium	-9.87603
▁recommend	-9.87603
▁enhance	-9.87603
▁family	-9.87603
▁theoretical	-9.87603
▁degree	-9.87603
▁draw	-9.87604
▁intended	-9.87605
▁matter	-9.87606
▁Also	-9.87612
▁releas	-9.87613
flexi	-9.87644
GSE	-9.87678
employed	-9.88171
▁save	-9.88257
spread	-9.88889
liance	-9.89027
etween	-9.91182
▁Republic	-9.91306
▁criticiz	-9.91306
▁extreme	-9.91306
▁perceived	-9.91306
▁scenario	-9.91306
▁Internet	-9.91306
▁otherwise	-9.91306
anticipat	-9.91306
▁Milton	-9.91307
▁Critic	-9.91308
▁detail	-9.91308
▁dilut	-9.91312
▁1973	-9.91313
voting	-9.91661
dealer	-9.93778
ommercial	-9.95043
▁Archive	-9.95152
▁Statistics	-9.95152
▁comparison	-9.95152
▁concluded	-9.95152
▁critical	-9.95152
▁horizon	-9.95152
▁welfare	-9.95152
▁Brothers	-9.95152
▁Department	-9.95153
▁Iceland	-9.95153
▁intervention	-9.95153
▁ignor	-9.95153
▁grew	-9.95153
▁Class	-9.95154
▁Fisher	-9.95155
▁offset	-9.95157
▁initiat	-9.95189
structure	-9.96738
ubprime	-9.99045
▁English	-9.99152
▁Service	-9.99152
▁Singapore	-9.99152
▁accelerat	-9.99152
▁arbitrage	-9.99152
▁essentially	-9.99152
▁microeconomic	-9.99152
▁negotiat	-9.99152
▁transparency	-9.99152
▁ultimately	-9.99152
▁French	-9.99152
▁RJR	-9.99152
▁demonstrat	-9.99152
▁distinguish	-9.99152
▁possibilit	-9.99152
▁Wiley	-9.99153
▁express	-9.99153
▁Report	-9.99153
▁check	-9.99153
▁remov	-9.99154
▁search	-9.99156
▁operate	-9.99159
▁construct	-9.99254
place	-9.9967
▁typical	-10.0287
voluntar	-10.0332
▁Economy	-10.0332
▁Michael	-10.0332
▁OECD	-10.0332
▁Phillips	-10.0332
▁Public	-10.0332
▁Stanley	-10.0332
▁Washington	-10.0332
▁criticism	-10.0332
▁emerged	-10.0332
▁eurozone	-10.0332
▁exacerbat	-10.0332
▁opposite	-10.0332
▁disrupt	-10.0332
▁boost	-10.0332
carbon	-10.0332
▁phase	-10.0334
dependent	-10.0342
including	-10.0526
▁substitut	-10.0662
▁protect	-10.0739
▁COVID	-10.0767
▁Development	-10.0767
▁Mortgage	-10.0767
▁Roosevelt	-10.0767
▁categories	-10.0767
▁chairman	-10.0767
▁dynamic	-10.0767
▁facility	-10.0767
▁sudden	-10.0767
▁Austria	-10.0767
▁argument	-10.0767
▁Short	-10.0767
▁monitor	-10.0767
▁grant	-10.0767
▁hours	-10.0767
▁repay	-10.0767
▁beyond	-10.0767
▁carrie	-10.0769
▁Deposit	-10.0798
▁innovat	-10.1172
▁Alternative	-10.1221
▁Canadian	-10.1221
▁Currency	-10.1221
▁Nabisco	-10.1221
▁Organization	-10.1221
▁constraints	-10.1221
▁declining	-10.1221
▁equipment	-10.1221
▁expensive	-10.1221
▁fraction	-10.1221
▁label	-10.1221
▁software	-10.1221
▁Lynch	-10.1221
▁Social	-10.1221
▁transport	-10.1221
ommunity	-10.1221
▁famous	-10.1221
▁automat	-10.1221
▁blame	-10.1222
▁bankrupt	-10.1695
neutral	-10.1697
▁People	-10.1697
committee	-10.1697
▁Instead	-10.1697
▁Labour	-10.1697
▁academic	-10.1697
▁channel	-10.1697
▁eliminate	-10.1697
▁identified	-10.1697
▁refinancing	-10.1697
▁specified	-10.1697
▁steady	-10.1697
▁friction	-10.1697
▁Margin	-10.1697
▁machine	-10.1697
▁pursue	-10.1697
▁NPV	-10.1697
▁provision	-10.1697
▁minimiz	-10.1698
▁concentrat	-10.1698
cogniti	-10.1698
