<unk>	0
<s>	0
</s>	0
▁the	-3.22772
s	-3.25793
,	-3.42524
.	-3.46846
▁of	-3.76288
▁	-3.92488
▁and	-4.07533
▁to	-4.11827
▁in	-4.20549
▁a	-4.31562
ed	-4.44939
ing	-4.49173
-	-4.87246
e	-4.92835
d	-4.96404
▁is	-5.12917
▁that	-5.14954
▁(	-5.15336
▁The	-5.24271
y	-5.26979
▁as	-5.32847
▁by	-5.33674
l	-5.34463
▁for	-5.36768
ly	-5.41347
▁on	-5.54671
t	-5.56635
▁are	-5.5719
a	-5.57729
p	-5.59511
)	-5.60812
▁or	-5.61727
n	-5.64574
o	-5.6671
r	-5.74021
▁with	-5.75719
'	-5.77314
al	-5.77365
c	-5.78312
▁be	-5.82518
:	-5.82829
▁"	-5.84264
▁was	-5.88396
ir	-5.90676
▁market	-5.90839
▁from	-5.93299
g	-5.95147
▁In	-5.95759
▁an	-5.98505
er	-6.00927
▁which	-6.04156
or	-6.08254
▁not	-6.10177
"	-6.12541
es	-6.13021
▁A	-6.14139
i	-6.14219
▁S	-6.21532
b	-6.25207
S	-6.26707
▁at	-6.27307
f	-6.2874
▁it	-6.29197
▁financial	-6.30689
▁price	-6.32757
▁have	-6.32768
ion	-6.34897
▁capital	-6.35048
▁can	-6.35789
in	-6.36516
▁rate	-6.37076
ation	-6.38153
le	-6.40399
u	-6.40564
ar	-6.40793
re	-6.42279
m	-6.42308
▁were	-6.4266
it	-6.46915
en	-6.47667
▁other	-6.49214
▁banks	-6.49739
▁also	-6.5352
▁its	-6.55072
▁investment	-6.55622
▁value	-6.55627
–	-6.5733
on	-6.60017
▁economic	-6.60375
▁more	-6.62235
▁P	-6.62557
w	-6.62599
▁funds	-6.64022
▁B	-6.64458
▁bank	-6.65349
▁M	-6.65358
;	-6.65412
▁risk	-6.65791
▁inflation	-6.66755
▁may	-6.67026
▁such	-6.67034
an	-6.67116
).	-6.67245
▁has	-6.67405
ment	-6.67527
▁interest	-6.68079
ic	-6.68186
▁policy	-6.68332
at	-6.68552
▁stock	-6.71225
▁re	-6.72266
▁U	-6.73621
▁this	-6.74484
ur	-6.75118
th	-6.76188
k	-6.76546
▁government	-6.77503
▁growth	-6.77651
▁than	-6.78273
ent	-6.80051
▁Thi	-6.81956
A	-6.82872
▁F	-6.83865
▁over	-6.83909
h	-6.84106
▁central	-6.84366
ri	-6.84431
▁Bank	-6.84573
▁C	-6.8479
▁crisis	-6.84996
able	-6.86462
▁money	-6.86515
▁b	-6.87003
▁exchange	-6.87907
6	-6.8856
▁rates	-6.88644
▁will	-6.89542
▁19	-6.90743
ch	-6.91145
3	-6.91676
C	-6.92346
▁un	-6.92442
▁company	-6.93252
ive	-6.94117
▁time	-6.94565
1	-6.94925
4	-6.95536
▁unemployment	-6.95823
2	-6.96124
▁T	-6.96317
▁Federa	-6.96737
▁would	-6.97347
),	-6.97659
5	-6.98009
▁companies	-6.98453
ity	-6.9947
▁economy	-6.99572
ra	-6.99884
▁E	-7.01854
us	-7.02261
▁but	-7.0352
▁had	-7.03713
▁Unit	-7.03962
▁monetar	-7.04649
as	-7.04705
▁investors	-7.0489
▁demand	-7.056
▁when	-7.05669
▁Reserve	-7.05839
9	-7.06939
ers	-7.07078
▁GDP	-7.08156
P	-7.08695
▁been	-7.09066
▁c	-7.0963
▁they	-7.09633
▁prices	-7.09976
is	-7.10004
▁fund	-7.10101
▁debt	-7.10856
7	-7.10968
▁private	-7.11802
il	-7.13404
▁securities	-7.13813
▁2008	-7.15912
▁all	-7.16278
I	-7.16683
E	-7.16799
te	-7.17276
▁between	-7.1833
▁States	-7.20299
▁markets	-7.21063
▁assets	-7.21131
▁de	-7.21215
▁high	-7.2206
▁new	-7.22198
▁credit	-7.22479
▁some	-7.23052
▁dur	-7.231
▁many	-7.23336
▁most	-7.23434
ose	-7.24435
▁these	-7.24552
▁used	-7.24862
▁one	-7.25336
ol	-7.25684
ro	-7.2583
▁management	-7.25942
▁into	-7.26516
▁part	-7.26822
▁through	-7.27407
▁trading	-7.28003
▁p	-7.28313
▁system	-7.28725
im	-7.30052
▁supply	-7.30424
▁billion	-7.31347
ist	-7.31586
▁G	-7.31722
▁equity	-7.32376
et	-7.3241
ce	-7.3242
▁use	-7.32507
un	-7.33082
el	-7.33549
▁countries	-7.33855
B	-7.34403
M	-7.34455
ter	-7.34711
▁N	-7.34952
▁income	-7.35272
8	-7.36053
▁result	-7.36419
st	-7.3661
▁increase	-7.36826
▁recession	-7.374
▁so	-7.38377
▁currency	-7.3839
▁For	-7.39793
▁out	-7.40227
▁W	-7.40806
▁large	-7.41014
▁mortgage	-7.42089
▁real	-7.42833
▁business	-7.42897
▁index	-7.4315
D	-7.43305
▁It	-7.43432
▁up	-7.43853
▁shares	-7.44273
▁who	-7.46128
▁m	-7.46396
▁under	-7.46554
R	-7.47263
▁example	-7.47408
▁ECB	-7.47408
▁often	-7.47756
▁J	-7.4849
▁no	-7.48624
ig	-7.48882
▁D	-7.48979
ies	-7.49329
▁US	-7.49551
▁first	-7.49982
▁asset	-7.50305
▁con	-7.5039
▁trade	-7.50398
age	-7.50576
▁form	-7.51249
um	-7.51429
▁lead	-7.51862
▁th	-7.51911
▁firms	-7.51951
▁if	-7.51966
ul	-7.52496
▁f	-7.52945
▁e	-7.52972
▁public	-7.53323
term	-7.53752
▁there	-7.53771
x	-7.54059
▁include	-7.55035
".	-7.55159
▁w	-7.55203
O	-7.55349
and	-7.55428
▁per	-7.55864
▁H	-7.56415
com	-7.57511
▁loans	-7.57638
▁ex	-7.58143
▁because	-7.58145
▁do	-7.58194
▁where	-7.58337
om	-7.58415
▁Re	-7.58736
▁only	-7.58759
ight	-7.58979
ne	-7.59492
est	-7.59607
out	-7.59922
ary	-7.59925
▁long	-7.60333
▁short	-7.6058
▁K	-7.60965
▁1	-7.60969
▁banking	-7.61003
▁lower	-7.62152
▁number	-7.6225
0	-7.6238
▁2	-7.63075
▁two	-7.63521
▁trillion	-7.63949
▁2007	-7.63953
▁period	-7.64378
▁European	-7.64423
▁higher	-7.64757
ance	-7.64914
▁any	-7.65445
/	-7.65677
▁R	-7.65689
▁analysis	-7.66113
▁could	-7.66113
▁after	-7.66117
qu	-7.66779
v	-7.66824
ve	-7.67488
▁level	-7.67624
▁target	-7.67637
▁Act	-7.67886
▁An	-7.68736
▁increased	-7.69279
end	-7.6933
▁major	-7.69677
▁pro	-7.69972
▁goods	-7.70004
▁pay	-7.70007
▁cash	-7.70156
▁low	-7.7047
▁futures	-7.70592
▁model	-7.70911
▁year	-7.70929
▁years	-7.71206
id	-7.71252
▁However	-7.71508
▁institutions	-7.71524
▁tax	-7.71723
▁share	-7.71899
▁account	-7.72251
▁different	-7.72535
▁about	-7.73847
▁total	-7.74132
F	-7.74261
▁well	-7.74844
while	-7.75275
▁work	-7.75305
em	-7.75562
ical	-7.76114
▁including	-7.76454
▁end	-7.76535
▁As	-7.76629
T	-7.76994
▁he	-7.77031
vi	-7.77201
▁venture	-7.7721
▁amount	-7.777
ci	-7.78313
▁IS	-7.78387
▁since	-7.78713
▁services	-7.7901
min	-7.79199
▁investments	-7.79264
ha	-7.79492
led	-7.79714
ut	-7.79788
▁I	-7.80079
am	-7.8017
▁country	-7.80195
▁Financial	-7.80693
▁Economic	-7.81201
▁Depression	-7.82224
▁Great	-7.82739
op	-7.83002
z	-7.83113
▁cost	-7.83138
co	-7.83244
▁Exchange	-7.83257
▁These	-7.83624
▁O	-7.8383
ous	-7.83919
▁dis	-7.84113
▁firm	-7.84705
▁housing	-7.85358
to	-7.85558
▁foreign	-7.85898
ill	-7.85975
▁New	-7.86963
ell	-7.8727
▁bonds	-7.87276
nce	-7.87287
per	-7.87467
▁common	-7.87502
N	-7.88119
▁theory	-7.88163
ant	-7.88317
▁made	-7.89164
▁found	-7.89735
▁h	-7.90113
▁De	-7.9046
▁both	-7.90851
BN	-7.90981
tion	-7.91086
▁global	-7.9137
▁r	-7.91389
▁case	-7.91417
▁due	-7.91513
the	-7.91635
▁less	-7.91667
▁change	-7.91675
00	-7.91828
▁sector	-7.91935
▁million	-7.92503
▁2009	-7.92504
man	-7.9258
▁known	-7.9275
▁make	-7.92827
▁3	-7.92881
ated	-7.92947
▁early	-7.93081
up	-7.93248
▁finance	-7.9365
▁18	-7.93856
▁called	-7.93877
ors	-7.93905
▁ETFs	-7.94365
son	-7.94637
▁bubble	-7.94808
ot	-7.94881
▁pre	-7.95345
▁purchase	-7.95586
5%	-7.95978
▁same	-7.95982
ac	-7.96777
▁output	-7.97187
▁even	-7.97991
▁provide	-7.98373
▁day	-7.98639
▁term	-7.98786
ions	-7.98786
if	-7.98803
▁like	-7.99017
ta	-7.99229
▁lending	-7.9925
▁effect	-7.99334
▁industry	-7.99585
▁average	-7.99586
mp	-7.99793
ized	-7.99986
▁V	-8.00066
19	-8.00076
▁his	-8.00453
▁buy	-8.00642
▁own	-8.01509
▁spending	-8.01631
ck	-8.01687
▁$1	-8.02344
▁generally	-8.02391
▁set	-8.02477
act	-8.03306
▁future	-8.03319
▁process	-8.03324
▁SEC	-8.03362
ag	-8.0338
▁deal	-8.03733
▁L	-8.04012
."	-8.04026
▁control	-8.04603
▁each	-8.04637
▁take	-8.04899
▁fall	-8.05301
▁down	-8.05308
▁world	-8.05897
ia	-8.05989
pe	-8.06514
▁people	-8.0655
▁home	-8.06552
▁rise	-8.06571
20	-8.06953
▁data	-8.07209
L	-8.07224
▁mo	-8.07568
▁American	-8.08
ian	-8.08238
til	-8.08267
▁To	-8.08281
▁changes	-8.08371
ver	-8.08394
▁investing	-8.08707
tra	-8.0893
me	-8.08998
▁did	-8.09753
▁decline	-8.09863
▁based	-8.1039
▁gold	-8.10567
▁way	-8.10575
▁By	-8.10727
ite	-8.10915
▁economists	-8.11172
▁default	-8.11249
▁margin	-8.11249
▁policies	-8.11249
▁curve	-8.11249
▁Some	-8.11264
&	-8.11364
▁co	-8.11396
▁national	-8.11436
▁much	-8.11976
▁potential	-8.12633
▁return	-8.13013
▁mutual	-8.13333
▁various	-8.13333
using	-8.13384
▁them	-8.13685
ner	-8.13922
▁began	-8.1404
ex	-8.14101
▁non	-8.14102
ual	-8.14714
▁labor	-8.14746
▁fixed	-8.14746
▁standard	-8.15218
▁St	-8.15342
▁usually	-8.1546
▁impact	-8.1549
▁law	-8.15508
ting	-8.15666
ish	-8.15803
▁balance	-8.1584
▁factors	-8.15905
▁Ro	-8.16034
▁affect	-8.1618
▁several	-8.1618
▁4	-8.16238
he	-8.16265
side	-8.16753
▁Fund	-8.16905
▁point	-8.16925
over	-8.17207
▁contract	-8.17233
▁Central	-8.17634
▁information	-8.17636
▁dividend	-8.17656
▁need	-8.17677
▁important	-8.1839
▁method	-8.1911
0%	-8.19134
▁typically	-8.19189
▁products	-8.19199
ard	-8.19591
—	-8.19857
▁before	-8.19875
ry	-8.20064
▁significant	-8.20159
▁report	-8.20178
▁employment	-8.20255
▁corporate	-8.20297
ory	-8.20388
▁traded	-8.20485
▁commercial	-8.20625
all	-8.21257
▁should	-8.21366
▁run	-8.21646
▁imp	-8.21667
▁sell	-8.22053
▁being	-8.22268
▁investor	-8.22341
▁does	-8.22599
▁He	-8.22683
rate	-8.22839
▁approach	-8.22899
▁century	-8.22899
▁commodity	-8.22899
ie	-8.22951
▁back	-8.23272
▁within	-8.23429
▁research	-8.23674
▁primar	-8.23674
▁order	-8.23736
▁production	-8.2382
ally	-8.23894
line	-8.24367
▁show	-8.24455
▁March	-8.24456
▁2010	-8.24464
ound	-8.24513
ten	-8.24763
▁sp	-8.24898
day	-8.2499
▁Market	-8.2526
▁comp	-8.25703
▁On	-8.25859
▁force	-8.25986
▁se	-8.26089
▁There	-8.26114
tor	-8.26739
▁Fed	-8.26768
▁September	-8.26836
▁Co	-8.27214
▁fee	-8.27311
ke	-8.2752
▁predict	-8.27643
▁Stock	-8.27643
▁main	-8.27648
▁role	-8.27654
ine	-8.27811
▁Ho	-8.27966
ma	-8.28214
▁then	-8.28346
▁activity	-8.28456
▁financing	-8.28456
▁net	-8.28482
ty	-8.28714
ial	-8.29167
▁what	-8.29276
▁liquidity	-8.2931
▁structure	-8.29448
▁5	-8.29481
▁costs	-8.29566
G	-8.29794
▁buyer	-8.29961
▁International	-8.30102
▁contribut	-8.30102
▁focus	-8.30102
▁remain	-8.30102
▁bond	-8.30452
▁stocks	-8.3114
ted	-8.31384
equity	-8.31562
▁World	-8.31775
▁power	-8.31776
▁represent	-8.31827
ating	-8.32234
▁levels	-8.3226
▁international	-8.32623
▁individual	-8.33073
▁consider	-8.33157
▁allow	-8.33167
ther	-8.33327
very	-8.33351
▁di	-8.33474
▁trend	-8.33477
▁certain	-8.335
▁mortgages	-8.3352
▁given	-8.33664
▁dividends	-8.33666
▁general	-8.33888
▁Ch	-8.341
form	-8.34255
▁must	-8.34341
▁three	-8.34342
▁open	-8.34345
cross	-8.34347
▁subprime	-8.3436
▁2000	-8.34366
▁against	-8.35237
cy	-8.35601
▁increases	-8.35763
50	-8.35882
▁support	-8.36086
▁Monetar	-8.36086
▁buyout	-8.36159
▁exist	-8.36236
▁Con	-8.36502
▁War	-8.36516
ti	-8.368
▁became	-8.36971
▁paid	-8.36972
▁2006	-8.36973
▁help	-8.36975
▁employ	-8.37162
▁largest	-8.3718
▁risks	-8.3722
▁particular	-8.37239
iv	-8.38037
▁invest	-8.38157
▁ratio	-8.38288
ear	-8.38735
▁fiscal	-8.38765
mer	-8.38905
▁st	-8.38989
▁small	-8.39423
▁v	-8.3949
▁2012	-8.39682
▁models	-8.39945
▁regulation	-8.40016
▁terms	-8.40133
▁payments	-8.4023
▁product	-8.40485
▁how	-8.40571
▁Securities	-8.40592
▁National	-8.40593
▁reduce	-8.40816
lic	-8.41102
ness	-8.41179
▁following	-8.41256
ability	-8.4137
▁measures	-8.41423
▁current	-8.41518
▁quantity	-8.41518
▁technical	-8.41518
▁rather	-8.4152
▁Index	-8.4152
▁failure	-8.4153
▁become	-8.41532
▁relative	-8.41569
ism	-8.41715
▁inter	-8.4187
▁developed	-8.42197
▁influence	-8.42207
H	-8.42397
▁created	-8.42438
▁According	-8.42452
▁acquisition	-8.42452
▁maintain	-8.42452
▁loss	-8.42531
▁later	-8.42721
▁position	-8.42819
▁direct	-8.42882
▁shareholders	-8.42916
▁effective	-8.42949
▁operations	-8.43396
▁portfolio	-8.434
source	-8.43401
▁project	-8.43421
▁contracts	-8.43617
one	-8.43882
▁profits	-8.44194
tract	-8.44318
▁negative	-8.44348
▁annual	-8.44349
▁another	-8.4435
▁Ma	-8.44389
▁Investment	-8.44391
ever	-8.44403
▁among	-8.45312
▁initial	-8.45313
j	-8.45633
▁program	-8.45875
▁required	-8.45964
▁cause	-8.45974
▁function	-8.4628
▁held	-8.46288
▁near	-8.46296
▁losses	-8.46539
▁measure	-8.46662
▁funding	-8.46761
ok	-8.47002
ure	-8.47287
▁merger	-8.47321
▁development	-8.47338
ide	-8.47439
▁decrease	-8.47776
▁Lo	-8.47843
▁conditions	-8.48214
▁consumption	-8.48251
▁federal	-8.48251
▁suggest	-8.48251
▁offer	-8.48269
▁profit	-8.48552
ud	-8.48555
▁either	-8.48638
▁selling	-8.48733
▁state	-8.49144
▁above	-8.49251
▁available	-8.49251
▁calculat	-8.49251
▁When	-8.49252
▁Commission	-8.49258
▁performance	-8.49277
V	-8.49304
▁consumer	-8.49454
▁loan	-8.49462
▁effects	-8.49504
month	-8.50044
▁practice	-8.50261
▁problem	-8.50261
▁quarter	-8.50261
▁Other	-8.50311
▁transaction	-8.50506
▁caused	-8.5055
▁Dur	-8.50597
▁go	-8.51071
▁$2	-8.51526
▁require	-8.5161
▁increasing	-8.51856
U	-8.52154
▁2011	-8.52322
▁months	-8.5239
The	-8.5251
▁act	-8.52721
▁returns	-8.52787
ization	-8.52909
▁view	-8.52946
no	-8.53015
▁economies	-8.53354
▁security	-8.53354
▁study	-8.53354
▁Risk	-8.53354
▁sold	-8.53366
,000	-8.53543
▁considered	-8.53747
▁full	-8.5377
▁book	-8.53867
▁spread	-8.53908
▁making	-8.53992
sh	-8.54064
▁businesses	-8.54104
▁7	-8.54173
▁&	-8.5423
▁paper	-8.54407
▁expectations	-8.5441
▁around	-8.54417
▁plan	-8.54497
▁below	-8.54651
▁dollar	-8.54671
▁close	-8.5477
ities	-8.54866
▁action	-8.55123
ton	-8.5539
▁John	-8.5547
▁macroeconomic	-8.5547
▁York	-8.5547
▁quantitative	-8.5547
▁key	-8.55484
wa	-8.55521
▁regulator	-8.55609
▁we	-8.55875
ong	-8.55987
▁established	-8.55989
hi	-8.56065
▁aggregate	-8.56546
▁corporation	-8.56546
▁strong	-8.56546
▁unemployed	-8.56574
▁political	-8.56634
▁workers	-8.56759
gu	-8.57027
▁place	-8.57064
▁specific	-8.57604
▁January	-8.57633
▁peak	-8.57633
▁yield	-8.57636
▁resources	-8.57638
▁possible	-8.57755
▁sub	-8.57912
▁thus	-8.57921
▁6	-8.58281
2%	-8.5856
▁borrow	-8.58618
▁currencies	-8.58731
▁explain	-8.58731
▁board	-8.58732
▁fell	-8.59008
▁revenue	-8.59843
▁turn	-8.59843
▁One	-8.5985
▁derivatives	-8.59861
▁holding	-8.59887
▁1990	-8.59895
▁Wall	-8.59939
▁10	-8.60073
▁hold	-8.60219
ving	-8.60502
tic	-8.60928
X	-8.60966
▁Japan	-8.60966
▁commodities	-8.60966
▁deficit	-8.60966
▁describ	-8.60966
▁Street	-8.60966
▁Ba	-8.61228
mar	-8.61391
uch	-8.61453
▁directly	-8.61514
▁Pro	-8.61536
$	-8.61602
▁seller	-8.61824
▁few	-8.62106
▁easing	-8.62107
backed	-8.62195
▁types	-8.62197
ick	-8.62395
▁9	-8.62399
▁adjust	-8.62663
pt	-8.62725
▁At	-8.62903
▁17	-8.63123
▁occur	-8.63247
▁similar	-8.63252
▁simpl	-8.63253
▁though	-8.63258
▁right	-8.63381
▁IPO	-8.63587
▁crises	-8.64415
▁cycle	-8.64415
▁strategies	-8.64415
▁further	-8.64415
▁traders	-8.64454
ward	-8.64831
▁expected	-8.65161
▁refer	-8.65385
lan	-8.65433
▁Treasury	-8.65591
▁strategy	-8.65591
▁just	-8.65616
▁ETF	-8.65795
ib	-8.65815
▁subject	-8.65832
▁0	-8.65929
▁standards	-8.65993
▁whe	-8.66367
tal	-8.66596
ily	-8.66652
▁System	-8.66782
ified	-8.66787
▁however	-8.6681
▁purchases	-8.67364
▁October	-8.67986
▁objective	-8.67986
▁previous	-8.67986
▁No	-8.68
▁rating	-8.68059
▁distribution	-8.68114
3%	-8.6844
not	-8.68499
▁Europe	-8.691
land	-8.69184
▁publish	-8.69206
▁implement	-8.69206
▁history	-8.69207
▁legal	-8.69207
▁pass	-8.69224
▁find	-8.69225
▁every	-8.69318
▁Whi	-8.69319
▁hand	-8.69328
▁states	-8.70227
▁type	-8.70339
▁member	-8.70367
ful	-8.70406
cre	-8.70439
▁avoid	-8.70441
▁expansion	-8.70441
▁shift	-8.70441
▁human	-8.70441
▁Bond	-8.70448
▁earnings	-8.70469
▁start	-8.70481
▁offering	-8.70595
▁via	-8.70847
▁If	-8.70915
–20	-8.70951
▁produce	-8.70988
▁sales	-8.71052
▁buying	-8.71487
▁associat	-8.71691
▁collapse	-8.71691
▁technology	-8.71691
▁social	-8.71692
▁Robert	-8.71701
ier	-8.71909
ach	-8.7246
▁wages	-8.72669
▁announced	-8.72956
▁equilibrium	-8.72956
▁History	-8.72956
▁official	-8.72956
▁difference	-8.72957
▁equal	-8.72973
▁limit	-8.73055
▁according	-8.7308
▁issue	-8.73244
still	-8.7327
▁Le	-8.73546
▁addition	-8.73631
▁economics	-8.73876
▁late	-8.73982
▁believe	-8.74238
▁deflation	-8.74238
▁crash	-8.74239
▁wealth	-8.74239
▁keep	-8.74239
▁four	-8.7424
▁underlying	-8.74257
low	-8.743
▁broker	-8.74528
▁vi	-8.74549
▁invested	-8.74647
W	-8.74875
▁=	-8.75105
▁likely	-8.75209
▁ownership	-8.75537
▁traditional	-8.75537
less	-8.75553
▁tend	-8.75581
referred	-8.75708
▁20	-8.75991
▁See	-8.76248
▁Ex	-8.76538
ren	-8.76552
▁Futures	-8.76853
▁reflect	-8.76853
▁July	-8.76857
▁relationship	-8.76857
▁2013	-8.76863
▁percentage	-8.76895
▁last	-8.76921
face	-8.76923
ue	-8.7705
by	-8.77053
▁see	-8.77206
▁mean	-8.77308
▁independent	-8.77339
▁forward	-8.77387
▁Com	-8.77456
▁leveraged	-8.77502
▁issued	-8.77579
ize	-8.77585
▁class	-8.77701
counter	-8.77743
rt	-8.7806
▁December	-8.78186
▁attempt	-8.78186
▁labour	-8.78186
▁positive	-8.78186
▁decade	-8.78187
▁insurance	-8.78187
▁modern	-8.78187
▁transfer	-8.78187
▁Many	-8.78194
▁name	-8.78196
▁Mo	-8.78258
ang	-8.7836
60	-8.78554
▁Di	-8.78681
4%	-8.78815
▁additional	-8.78823
vent	-8.78944
based	-8.78954
▁reported	-8.78956
ice	-8.79136
fin	-8.79189
▁unit	-8.79508
November	-8.79538
▁Economist	-8.79538
▁charge	-8.79538
▁population	-8.79538
▁Venture	-8.79538
▁June	-8.7954
▁war	-8.79849
▁flow	-8.79857
ible	-8.7998
▁Be	-8.80241
▁jobs	-8.80532
▁consumers	-8.80629
▁England	-8.80908
▁Board	-8.80908
▁list	-8.8095
▁1980	-8.80968
▁slow	-8.80988
▁date	-8.81037
▁independence	-8.81129
ative	-8.81161
200	-8.81276
▁instruments	-8.81427
▁argued	-8.81457
▁create	-8.81481
▁fil	-8.81688
▁agencies	-8.82296
▁group	-8.82296
▁Further	-8.82297
▁health	-8.82297
▁clear	-8.82299
1%	-8.82524
▁job	-8.82679
▁good	-8.82692
▁idea	-8.82823
▁far	-8.82954
▁compared	-8.83113
(	-8.83168
oth	-8.83282
▁depend	-8.83458
▁experience	-8.83467
va	-8.8352
▁limited	-8.83596
▁second	-8.83653
▁ga	-8.83659
▁import	-8.8367
▁April	-8.83705
▁behavior	-8.83705
▁budget	-8.83705
▁inequality	-8.83705
▁valuation	-8.83705
▁track	-8.83706
▁better	-8.8371
▁requirements	-8.83712
▁play	-8.83762
▁8	-8.83898
▁VC	-8.83936
▁Li	-8.83959
▁leverage	-8.84433
▁transactions	-8.84787
▁Al	-8.85038
▁After	-8.85136
▁institutional	-8.85139
▁meet	-8.85139
▁five	-8.85575
for	-8.85766
30	-8.85772
▁Th	-8.85785
10	-8.86039
be	-8.8631
▁ca	-8.8645
▁Kingdom	-8.86583
▁Money	-8.86584
▁Keynesian	-8.866
▁discount	-8.86601
▁depression	-8.86623
▁QE	-8.86657
▁Government	-8.86666
▁recent	-8.86707
▁India	-8.86708
▁related	-8.87026
▁deposit	-8.87356
▁May	-8.87385
▁estimated	-8.87504
off	-8.87554
▁payment	-8.87571
▁factor	-8.8763
▁wide	-8.87716
▁means	-8.87748
▁12	-8.87762
▁issues	-8.88045
▁client	-8.88053
▁regard	-8.88054
▁1933	-8.88054
▁reason	-8.88056
▁oil	-8.88092
▁size	-8.88137
▁greater	-8.88211
▁come	-8.8836
▁decision	-8.88693
▁fi	-8.88902
▁978-0	-8.89071
go	-8.89302
na	-8.89424
ential	-8.89542
▁domestic	-8.89546
▁itself	-8.89547
▁organization	-8.89583
▁Union	-8.89679
bi	-8.90258
log	-8.90284
▁generate	-8.90286
▁decisions	-8.90406
io	-8.90465
cent	-8.90539
ber	-8.90771
ince	-8.91046
▁trans	-8.9106
▁Capital	-8.91061
▁China	-8.91062
▁range	-8.91068
▁hedge	-8.91116
▁overall	-8.91295
▁customer	-8.91307
–19	-8.91432
▁options	-8.9169
▁reserves	-8.91751
▁individuals	-8.91784
▁sale	-8.91861
{	-8.92181
tro	-8.92488
ade	-8.92555
▁look	-8.926
▁euro	-8.92602
▁fundamental	-8.92609
▁2020	-8.92638
▁compet	-8.9279
▁Q	-8.92831
▁sta	-8.92932
▁indicators	-8.92952
of	-8.93053
▁add	-8.93091
25	-8.93138
▁toward	-8.93225
▁15	-8.93342
▁reserve	-8.93455
▁President	-8.93725
most	-8.9379
▁nation	-8.93823
▁claim	-8.94162
▁especially	-8.94162
▁normal	-8.94162
▁1929	-8.94162
▁With	-8.94164
▁Paul	-8.94164
▁From	-8.94164
▁therefore	-8.94167
▁estate	-8.94189
▁1930	-8.94274
▁seek	-8.94305
▁II	-8.94414
▁lenders	-8.94433
▁Ca	-8.94763
6%	-8.94915
▁follow	-8.95026
▁option	-8.95097
▁significantly	-8.95115
▁households	-8.95263
▁activities	-8.95749
▁record	-8.95749
▁zero	-8.95749
▁2005	-8.95752
▁Over	-8.95798
▁develop	-8.9606
▁industrial	-8.96227
holder	-8.96346
▁reli	-8.96372
▁raised	-8.96388
row	-8.96505
▁involved	-8.96608
▁longer	-8.96722
18	-8.96845
run	-8.9687
▁achieve	-8.97362
▁difficult	-8.97362
▁expenditure	-8.97362
▁nominal	-8.97363
▁expand	-8.97363
▁agreement	-8.97394
▁cut	-8.97643
stitution	-8.97741
ern	-8.98065
22	-8.98548
8%	-8.98973
▁University	-8.99002
▁response	-8.99002
▁situation	-8.99002
▁sheet	-8.99002
▁least	-8.99002
▁Finance	-8.99002
▁indices	-8.99002
▁boom	-8.99003
▁half	-8.99003
▁present	-8.99014
▁office	-8.99024
tri	-8.99041
▁stability	-8.99045
▁2019	-8.99046
▁post	-8.99055
▁rules	-8.9909
equ	-8.99098
▁members	-8.99099
▁Most	-8.99101
▁borrowers	-8.99143
▁cover	-8.99279
▁Germany	-8.99307
time	-8.99475
▁working	-8.99602
▁call	-8.99692
ject	-8.99816
11	-8.99937
▁deposits	-8.99988
▁included	-9.00281
▁larger	-9.00597
▁instead	-9.00668
▁obligation	-9.00668
▁introduced	-9.00673
▁lack	-9.00696
▁movement	-9.00783
sometimes	-9.00797
▁provid	-9.009
▁goal	-9.0119
▁sign	-9.01593
▁enabl	-9.0172
▁reduced	-9.01947
chang	-9.01996
▁16	-9.02249
▁Congress	-9.02363
▁local	-9.02363
▁build	-9.02363
▁concern	-9.02363
▁basis	-9.02364
▁varie	-9.02366
▁self	-9.02366
▁participation	-9.02372
▁secondary	-9.02425
▁We	-9.03453
▁savings	-9.03704
▁London	-9.04087
▁productivity	-9.04087
▁said	-9.04088
▁region	-9.04097
down	-9.04116
▁final	-9.04142
▁1970	-9.04187
see	-9.04276
▁original	-9.04727
▁raise	-9.05141
▁argue	-9.05141
▁followed	-9.05392
")	-9.05502
▁events	-9.05524
}	-9.05817
▁guarantee	-9.05842
▁volume	-9.05842
▁design	-9.05842
▁lost	-9.05842
▁Management	-9.05842
▁percent	-9.05851
▁borrowing	-9.05872
▁prevent	-9.05889
▁causes	-9.05933
▁approximate	-9.0594
▁rose	-9.06126
70	-9.06489
24	-9.06675
▁hav	-9.06835
7%	-9.06843
▁now	-9.06851
▁reached	-9.06941
▁closed	-9.07013
went	-9.07055
▁stated	-9.07198
07	-9.0722
▁America	-9.07278
▁gains	-9.07371
her	-9.07412
▁govern	-9.07454
related	-9.07485
istic	-9.07509
▁Crisis	-9.07627
▁February	-9.07627
▁auction	-9.07627
▁broad	-9.07627
▁concept	-9.07627
▁framework	-9.07629
▁incentive	-9.07629
▁Unemployment	-9.07631
▁rising	-9.07639
▁Asset	-9.07639
▁managers	-9.07654
▁sha	-9.07737
▁former	-9.08004
year	-9.08546
dge	-9.08619
ection	-9.09231
16	-9.09281
J	-9.09324
▁started	-9.09359
35	-9.09369
▁David	-9.09445
▁reducing	-9.09445
▁Graham	-9.09446
▁access	-9.09446
▁rational	-9.09457
▁consist	-9.09458
style	-9.09496
ably	-9.09538
▁put	-9.09695
▁defined	-9.09725
▁bid	-9.09904
▁expect	-9.1011
▁allowed	-9.10151
▁collateral	-9.10307
ship	-9.1034
▁growing	-9.10491
▁capita	-9.10821
▁flows	-9.10945
Y	-9.11225
▁rule	-9.11235
▁British	-9.11297
▁Journal	-9.11297
▁natural	-9.11297
▁quality	-9.11297
▁sovereign	-9.11297
▁technological	-9.11297
▁popular	-9.11297
▁life	-9.11298
▁wrote	-9.11298
▁chart	-9.113
▁2004	-9.113
▁complete	-9.11304
▁third	-9.11307
▁2015	-9.1131
▁Euro	-9.11324
▁variables	-9.11334
▁move	-9.11357
▁perform	-9.11366
▁assum	-9.11406
ank	-9.11456
PI	-9.11767
▁estimat	-9.11996
lay	-9.12046
pol	-9.12165
▁targeting	-9.12321
▁fact	-9.12726
▁person	-9.13075
▁earn	-9.13162
▁drop	-9.1318
▁prior	-9.1318
▁Australia	-9.13184
▁Company	-9.13184
▁Private	-9.13184
▁expense	-9.13184
▁purchasing	-9.13184
▁component	-9.13185
▁2001	-9.13187
▁successful	-9.13205
▁Y	-9.13213
▁$7	-9.13282
bank	-9.13332
▁manager	-9.13395
▁get	-9.1342
av	-9.13547
▁So	-9.13664
▁mis	-9.1367
▁par	-9.13752
▁La	-9.13918
▁accounting	-9.13946
▁originat	-9.13992
back	-9.14025
▁reach	-9.14105
28	-9.14309
40	-9.15105
▁alternative	-9.15107
▁definition	-9.15107
▁energy	-9.15107
▁shock	-9.15107
▁supervis	-9.15107
▁mitigat	-9.15107
▁2021	-9.15107
▁worth	-9.15109
▁Under	-9.15109
▁past	-9.15112
▁outstanding	-9.15129
▁declined	-9.15167
▁creation	-9.15254
▁That	-9.15278
▁ability	-9.15311
12	-9.15434
▁sum	-9.15498
▁issuer	-9.15608
▁fail	-9.15851
▁met	-9.15991
way	-9.16058
▁failed	-9.16291
▁continue	-9.16401
particularly	-9.16474
▁al	-9.1649
▁measured	-9.16499
ugh	-9.16696
▁Commodity	-9.17068
▁Corporation	-9.17068
▁foreclosure	-9.17068
▁pattern	-9.17068
▁physical	-9.17068
▁studies	-9.17068
▁survey	-9.17068
▁figure	-9.17068
▁pressure	-9.17068
▁address	-9.17068
▁2014	-9.17084
direct	-9.17096
traded	-9.17128
▁Not	-9.1723
▁mid	-9.17341
▁recovery	-9.17424
part	-9.17611
▁500	-9.17807
▁grow	-9.17819
▁Ben	-9.17892
▁free	-9.17929
▁accept	-9.17948
▁analysts	-9.17984
put	-9.18153
▁benefits	-9.1822
▁give	-9.18238
▁stabiliz	-9.18402
93	-9.18571
▁Global	-9.19068
▁already	-9.19068
▁consequence	-9.19068
▁industries	-9.19068
▁reduction	-9.19068
▁sustain	-9.19068
▁rapid	-9.19068
▁retail	-9.19068
▁competition	-9.19068
▁swap	-9.19069
▁week	-9.1907
▁house	-9.19077
scale	-9.19085
▁along	-9.19115
▁$4	-9.19146
▁EU	-9.19248
▁economist	-9.19294
▁managed	-9.19434
▁serve	-9.19593
▁la	-9.20172
▁compar	-9.20389
ture	-9.20493
ger	-9.20719
▁enter	-9.20733
▁Do	-9.20876
ake	-9.2104
continu	-9.21049
▁proportion	-9.21109
▁August	-9.21109
▁Fannie	-9.21109
▁conduct	-9.21109
▁exports	-9.21109
▁surplus	-9.21109
▁contrast	-9.21109
▁gross	-9.21109
ification	-9.2111
▁$3	-9.21272
▁ste	-9.21348
▁Un	-9.21614
▁Ha	-9.21709
▁widely	-9.21745
▁signal	-9.22047
▁caus	-9.22243
▁highly	-9.22357
▁gain	-9.2245
▁provided	-9.22894
▁References	-9.23192
▁advance	-9.23192
▁appear	-9.23192
▁enterprise	-9.23192
▁historical	-9.23192
▁launch	-9.23192
▁pension	-9.23192
▁living	-9.23192
▁commission	-9.23193
▁2022	-9.23214
K	-9.2322
14	-9.2323
mission	-9.23283
▁protection	-9.23312
classical	-9.23553
▁coin	-9.2376
▁taking	-9.23842
▁indicate	-9.23951
▁acquire	-9.24616
▁event	-9.25018
▁count	-9.25189
▁mark	-9.25256
▁little	-9.2532
▁necessar	-9.2532
▁participants	-9.2532
▁purpose	-9.2532
▁always	-9.25321
▁Price	-9.25322
▁came	-9.25375
▁Thus	-9.25462
▁$5	-9.25471
▁encourage	-9.25489
-19	-9.25945
lthough	-9.26128
▁wage	-9.26184
90	-9.26357
▁taxes	-9.26482
▁replac	-9.26616
elect	-9.2662
▁although	-9.26675
▁liquid	-9.26798
▁notes	-9.26839
▁improve	-9.27365
ecause	-9.27387
▁excess	-9.27396
sufficient	-9.27494
▁Council	-9.27494
▁Inflation	-9.27494
▁Research	-9.27494
▁mechanism	-9.27494
▁Business	-9.27494
▁material	-9.27494
▁regime	-9.27494
▁school	-9.27494
▁Group	-9.27494
▁favor	-9.27494
▁assumption	-9.27494
▁complex	-9.27494
▁France	-9.27496
▁Press	-9.27497
▁executive	-9.27511
▁Investors	-9.2753
▁links	-9.27551
▁$6	-9.27631
▁innovation	-9.2771
market	-9.27746
▁parties	-9.27928
38	-9.28034
75	-9.28107
▁receive	-9.28163
▁involv	-9.28213
▁president	-9.29404
91	-9.29408
▁determined	-9.29573
▁Govern	-9.29589
efficient	-9.29716
▁Association	-9.29716
▁IndyMac	-9.29716
▁climate	-9.29716
▁declar	-9.29716
▁evidence	-9.29716
▁exposure	-9.29716
▁obtain	-9.29716
▁General	-9.29716
▁CDO	-9.29716
▁six	-9.29717
sponsor	-9.29718
▁South	-9.2972
▁exceed	-9.2972
▁single	-9.29746
▁startup	-9.29783
▁preferred	-9.2985
▁stage	-9.29893
▁delivery	-9.30085
▁purchased	-9.30136
▁combined	-9.30163
13	-9.30367
▁household	-9.30408
In	-9.30645
▁best	-9.3065
▁cap	-9.30785
▁online	-9.30863
▁produced	-9.30984
▁owned	-9.31727
▁mon	-9.31765
▁speculat	-9.31765
▁actual	-9.31941
▁Bernanke	-9.31989
▁Canada	-9.31989
▁Freddie	-9.31989
▁education	-9.31989
▁evaluat	-9.31989
▁themselves	-9.31989
▁Consumer	-9.31989
▁progress	-9.31989
▁entire	-9.31989
▁Another	-9.31989
▁instance	-9.31995
▁say	-9.32005
▁mass	-9.32024
▁etc	-9.32042
▁formula	-9.32084
▁publicly	-9.324
▁{	-9.32612
ega	-9.32717
▁acquired	-9.32746
q	-9.3279
▁service	-9.328
▁14	-9.32984
17	-9.33193
▁Mac	-9.33272
▁rest	-9.33623
▁base	-9.33626
80	-9.33691
▁environment	-9.33817
▁Per	-9.33902
core	-9.34053
▁great	-9.34064
▁active	-9.34091
▁dot	-9.3421
agricultur	-9.34314
▁Chicago	-9.34314
▁Corporate	-9.34314
▁downturn	-9.34314
▁operating	-9.34314
▁proposed	-9.34314
▁technique	-9.34314
▁trust	-9.34314
▁Credit	-9.34314
▁property	-9.34314
▁eventually	-9.34315
▁stable	-9.34608
▁statement	-9.34615
▁done	-9.34655
Q	-9.34722
like	-9.34741
▁Industrial	-9.34829
serv	-9.35014
▁adopted	-9.35181
▁continued	-9.35183
makers	-9.35412
15	-9.35486
▁taken	-9.35603
▁determin	-9.3573
izing	-9.36493
▁success	-9.36678
▁responsib	-9.36695
▁External	-9.36695
▁Macroeconomic	-9.36695
▁division	-9.36695
▁effort	-9.36695
▁feature	-9.36695
▁forecast	-9.36695
▁substantial	-9.36695
▁Growth	-9.36695
▁engage	-9.36695
Morgan	-9.36696
▁women	-9.36696
▁Interest	-9.36696
▁MBS	-9.36697
▁beginning	-9.36698
▁occurred	-9.36705
▁hard	-9.36827
▁select	-9.36831
▁vary	-9.3684
▁personal	-9.37092
▁tri	-9.37195
▁special	-9.37451
▁100	-9.37488
▁benefit	-9.37716
▁document	-9.37849
▁establish	-9.37947
▁received	-9.38138
▁creat	-9.38141
▁11	-9.38197
arian	-9.38379
89	-9.38551
▁13	-9.38655
▁Bureau	-9.39134
▁emerging	-9.39134
▁quickly	-9.39134
▁vehicle	-9.39134
▁promot	-9.39135
▁Share	-9.39136
▁2003	-9.39138
▁entities	-9.39139
▁UK	-9.39276
▁poor	-9.39338
▁double	-9.3943
▁upon	-9.40136
▁lend	-9.40216
verse	-9.40986
▁agency	-9.41634
▁underwriting	-9.41634
▁appropriate	-9.41634
▁suffer	-9.41634
▁knowledge	-9.41635
▁authority	-9.41635
▁computer	-9.41636
▁weak	-9.41653
▁decid	-9.41671
▁test	-9.41702
▁10%	-9.41821
▁involves	-9.4192
▁vers	-9.42202
▁again	-9.42212
def	-9.42445
▁Car	-9.42523
ash	-9.42599
ram	-9.42617
▁shareholder	-9.42995
generat	-9.43303
dow	-9.43469
▁Friedman	-9.44198
▁Recession	-9.44198
▁capacity	-9.44198
▁confidence	-9.44198
▁correspond	-9.44198
▁immediate	-9.44198
▁question	-9.44198
▁volatility	-9.44198
▁competitive	-9.44199
▁think	-9.442
▁treat	-9.442
▁bankruptcy	-9.44212
▁join	-9.44256
▁Dow	-9.44371
▁whose	-9.444
▁actively	-9.44704
▁But	-9.44871
▁stor	-9.45033
US	-9.45349
▁seen	-9.45442
▁21	-9.46191
▁All	-9.46726
▁Gold	-9.46797
▁Keynes	-9.46798
▁Analysis	-9.4683
▁Policy	-9.4683
▁enforce	-9.4683
▁liabilities	-9.4683
▁observ	-9.4683
▁statistical	-9.4683
▁subsequent	-9.4683
▁food	-9.4683
▁bought	-9.4683
▁multiple	-9.4683
▁Mae	-9.46833
▁bills	-9.46851
▁fast	-9.46914
▁want	-9.47113
▁Gree	-9.47128
▁stimulate	-9.47382
▁tools	-9.47416
▁revers	-9.47544
▁bankers	-9.48426
berg	-9.48694
weight	-9.48914
▁differ	-9.48953
▁Asia	-9.49172
▁distribut	-9.49248
▁advis	-9.49507
▁Africa	-9.49533
▁separate	-9.49533
▁daily	-9.49533
▁next	-9.49533
▁nature	-9.49533
▁1932	-9.49534
▁threat	-9.49534
▁series	-9.49536
▁internal	-9.49541
oint	-9.49546
▁theories	-9.49603
▁assessment	-9.49608
▁1934	-9.49627
▁spot	-9.49665
▁$10	-9.49706
▁20%	-9.49729
▁Law	-9.49729
saw	-9.49784
▁regulated	-9.4997
value	-9.50348
▁programme	-9.5068
▁increasingly	-9.50749
▁our	-9.51235
▁instrument	-9.51258
▁German	-9.51793
▁Invest	-9.52143
relatively	-9.52207
▁Britain	-9.5231
▁article	-9.5231
▁empirical	-9.5231
▁facilitat	-9.5231
▁hypothesis	-9.5231
▁managing	-9.5231
▁constant	-9.52311
▁preference	-9.52311
▁silver	-9.52311
▁examine	-9.52312
▁Work	-9.52313
correct	-9.52317
▁team	-9.52319
▁panic	-9.52328
▁easi	-9.52359
▁investigat	-9.52371
▁earlier	-9.52427
▁More	-9.52682
▁desp	-9.52708
▁smaller	-9.5309
called	-9.53219
investment	-9.53261
▁contraction	-9.53571
▁whole	-9.53666
▁recover	-9.5465
depository	-9.54873
27	-9.5488
08	-9.54962
85	-9.54963
link	-9.55107
NYSE	-9.55167
structural	-9.55167
uantitative	-9.55167
▁Black	-9.55167
▁Buffett	-9.55167
▁Second	-9.55167
▁William	-9.55167
▁enough	-9.55167
▁homeowners	-9.55167
▁minimum	-9.55167
▁principle	-9.55167
▁prospect	-9.55167
▁stimulus	-9.55167
▁advantage	-9.55168
▁pricing	-9.55168
▁kind	-9.55168
▁reading	-9.55168
front	-9.55168
▁severe	-9.5517
▁Dodd	-9.55175
▁Trade	-9.55181
▁2017	-9.55189
▁respective	-9.5522
▁bring	-9.55223
▁maturity	-9.55245
▁combination	-9.55251
▁ensure	-9.55253
outside	-9.55868
=	-9.56134
69	-9.56512
▁hit	-9.56695
78	-9.57887
▁du	-9.57992
▁accumulat	-9.58109
onsequently	-9.58109
▁Charles	-9.58109
▁Technical	-9.58109
▁advocat	-9.58109
▁optim	-9.58109
▁principal	-9.58109
▁regular	-9.58109
▁statistics	-9.58109
▁utility	-9.58109
▁Thomas	-9.58109
▁Mutual	-9.58109
▁collect	-9.58109
load	-9.58109
roughly	-9.58109
▁retain	-9.5811
▁mandate	-9.5811
▁fuel	-9.58113
▁leav	-9.58119
▁compensat	-9.58119
▁you	-9.58129
▁try	-9.5814
▁settlement	-9.58191
▁agreed	-9.58439
▁capitalization	-9.58619
▁gap	-9.58906
risk	-9.59235
▁doi	-9.59715
0,000	-9.59958
▁Qu	-9.6
▁determine	-9.60148
▁Har	-9.6085
34	-9.60996
▁Mark	-9.61075
▁convert	-9.6113
▁Additionally	-9.61139
▁acquiring	-9.61139
▁opportunities	-9.61139
▁true	-9.61139
▁2023	-9.61139
▁contain	-9.61139
▁Equity	-9.6114
▁portion	-9.6114
▁burst	-9.61141
▁basic	-9.61141
▁First	-9.61143
OTC	-9.61147
▁network	-9.61164
▁50%	-9.61252
ology	-9.61362
▁reform	-9.61583
▁understand	-9.62252
work	-9.62272
▁drive	-9.62635
▁Part	-9.63021
▁State	-9.63603
▁deliver	-9.63744
▁indicator	-9.63758
▁po	-9.64156
registered	-9.64264
▁Committee	-9.64264
▁Richard	-9.64264
▁applied	-9.64264
▁approv	-9.64264
▁aspect	-9.64264
▁perspective	-9.64264
▁professional	-9.64264
▁Standard	-9.64264
▁together	-9.64264
▁issuance	-9.64264
▁1997	-9.64265
▁Russia	-9.64265
▁secure	-9.64266
▁Panic	-9.64267
▁Open	-9.64268
print	-9.64283
▁deriv	-9.64289
▁field	-9.64317
rought	-9.64333
▁review	-9.64388
▁frequently	-9.64402
▁excessive	-9.64407
▁old	-9.64416
▁directors	-9.64422
▁speculation	-9.64508
▁allocation	-9.64522
eph	-9.6463
IT	-9.64671
displa	-9.64817
▁seem	-9.64858
roll	-9.6507
view	-9.65343
count	-9.65425
making	-9.65522
residential	-9.65692
▁decreas	-9.65794
▁adopt	-9.66301
48	-9.66519
▁character	-9.66722
▁except	-9.66787
9%	-9.66963
▁electronic	-9.6749
▁legislat	-9.6749
relevant	-9.6749
▁Greenspan	-9.6749
▁Stearns	-9.6749
▁choice	-9.6749
▁conflict	-9.6749
▁criteria	-9.6749
▁external	-9.6749
▁identify	-9.6749
▁manufacturing	-9.6749
▁operational	-9.6749
▁solution	-9.6749
▁trigger	-9.6749
▁withdraw	-9.6749
▁choose	-9.6749
▁letter	-9.6749
▁Labor	-9.67491
▁1998	-9.67491
▁James	-9.67491
▁Therefore	-9.67492
▁issuing	-9.67497
Frank	-9.67503
▁2018	-9.67524
▁perfect	-9.67555
▁governors	-9.67575
▁relation	-9.67732
ught	-9.6803
▁classes	-9.68118
ertain	-9.68218
▁2024)	-9.68238
02	-9.68703
corporate	-9.68852
driven	-9.69208
▁Earl	-9.69435
▁prove	-9.69468
prime	-9.69971
▁Even	-9.70175
▁lender	-9.70699
▁Eurozone	-9.70823
▁Similar	-9.70823
▁afford	-9.70823
▁application	-9.70823
▁efficiency	-9.70823
▁families	-9.70823
▁strategic	-9.70823
▁Office	-9.70823
▁Product	-9.70823
▁accurate	-9.70823
▁fraud	-9.70823
▁cheap	-9.70823
▁left	-9.70823
▁numer	-9.70824
heavily	-9.70824
▁carry	-9.70824
▁1999	-9.70824
▁apply	-9.70825
▁CDS	-9.70825
▁brand	-9.70826
▁safety	-9.7085
▁seven	-9.70871
▁profitability	-9.709
▁yet	-9.70938
▁1920	-9.71349
▁media	-9.71411
▁environmental	-9.71544
GDP	-9.72305
stock	-9.72308
more	-9.72383
TA	-9.72629
bert	-9.72801
EC	-9.73369
▁Option	-9.74133
oreign	-9.74226
▁safe	-9.74244
▁depreciat	-9.74271
LTRO	-9.74271
structuring	-9.74271
▁Facility	-9.74271
▁Inquiry	-9.74271
▁Krugman	-9.74271
▁Parliament	-9.74271
▁Supply	-9.74271
▁attribut	-9.74271
▁challeng	-9.74271
▁commitments	-9.74271
▁consensus	-9.74271
▁equivalent	-9.74271
▁explanation	-9.74271
▁opposed	-9.74271
▁premium	-9.74271
▁recognize	-9.74271
▁uncertainty	-9.74271
▁Lehman	-9.74271
▁Trading	-9.74271
▁analyz	-9.74271
▁worldwide	-9.74272
▁Value	-9.74272
▁Dutch	-9.74272
▁multi	-9.74272
▁Merger	-9.74272
▁extend	-9.74275
stream	-9.74277
▁retire	-9.7428
▁matur	-9.7428
▁begin	-9.74291
▁bailout	-9.74298
▁entity	-9.74306
▁center	-9.74337
▁Term	-9.74374
▁inputs	-9.74376
▁Jos	-9.74601
▁profitable	-9.74646
▁List	-9.74862
struction	-9.75178
liance	-9.77228
▁maxim	-9.7738
location	-9.77821
▁Companies	-9.77843
▁Historical	-9.77843
▁Institute	-9.77843
▁School	-9.77843
▁happen	-9.77843
▁medium	-9.77843
▁opportunity	-9.77843
▁pandemic	-9.77843
▁recommend	-9.77843
▁underwriter	-9.77843
▁degree	-9.77843
▁distinct	-9.77843
▁enhance	-9.77843
▁family	-9.77843
▁respond	-9.77843
▁theoretical	-9.77843
▁Program	-9.77843
▁draw	-9.77843
▁matter	-9.77844
▁intended	-9.77844
▁releas	-9.77847
▁probability	-9.77849
▁fair	-9.77853
ield	-9.77854
▁debate	-9.77875
▁head	-9.77876
▁Also	-9.77879
▁course	-9.77889
GSE	-9.77914
▁pool	-9.7794
▁assist	-9.78092
▁care	-9.78287
▁ge	-9.78316
▁save	-9.78365
▁giv	-9.78666
pace	-9.78937
▁31	-9.79024
spread	-9.79573
balance	-9.79581
▁construct	-9.80581
▁2024	-9.80728
etween	-9.8144
▁variable	-9.81473
▁derivative	-9.81504
▁Republic	-9.81546
▁criticiz	-9.81546
▁otherwise	-9.81546
▁perceived	-9.81546
▁scenario	-9.81546
anticipat	-9.81547
▁Internet	-9.81547
▁extreme	-9.81547
▁Critic	-9.81547
▁Milton	-9.81547
▁detail	-9.81547
▁dilut	-9.81548
▁1973	-9.81548
▁East	-9.81565
▁outcome	-9.81571
▁2002	-9.81571
▁representative	-9.81614
pending	-9.81626
▁Greece	-9.81644
voting	-9.81655
▁1940	-9.81746
▁improvement	-9.81768
▁$8	-9.81886
▁partial	-9.81966
▁adjustment	-9.81969
▁emergenc	-9.82147
dealer	-9.83328
employed	-9.83904
▁manage	-9.84081
▁spend	-9.845
▁allocat	-9.85102
ommercial	-9.85305
▁Brothers	-9.85393
▁Statistics	-9.85393
▁concluded	-9.85393
▁critical	-9.85393
▁horizon	-9.85393
▁welfare	-9.85393
▁Department	-9.85393
▁Iceland	-9.85393
▁Archive	-9.85393
▁grew	-9.85393
▁intervention	-9.85393
▁comparison	-9.85393
▁Class	-9.85393
▁ignor	-9.85393
▁Fisher	-9.85394
▁offset	-9.85395
▁Court	-9.85395
▁Tax	-9.85396
▁why	-9.85398
▁easy	-9.854
▁dropped	-9.85402
▁initiat	-9.85405
▁Jones	-9.85406
▁capture	-9.85411
}}	-9.85419
▁fluctuations	-9.85422
▁Goldman	-9.85447
▁specifically	-9.85528
▁securitization	-9.85532
text	-9.85593
▁setting	-9.85604
▁$9	-9.85754
▁ju	-9.85758
▁condition	-9.86301
▁978-	-9.86642
book	-9.87422
▁indicat	-9.8773
state	-9.88659
▁restrict	-9.8935
ctually	-9.8937
▁prefer	-9.89392
▁English	-9.89393
▁Service	-9.89393
▁Singapore	-9.89393
▁accelerat	-9.89393
▁demonstrat	-9.89393
▁distinguish	-9.89393
▁essentially	-9.89393
▁express	-9.89393
▁microeconomic	-9.89393
▁possibilit	-9.89393
▁transparency	-9.89393
▁ultimately	-9.89393
▁Report	-9.89393
▁Wiley	-9.89393
▁negotiat	-9.89393
▁RJR	-9.89393
▁check	-9.89393
▁remov	-9.89393
▁French	-9.89393
▁search	-9.89394
▁operate	-9.89395
▁Demand	-9.89395
▁quot	-9.89402
▁Rate	-9.89413
erfect	-9.89413
▁never	-9.89418
▁2016	-9.89431
▁Review	-9.89459
▁closing	-9.89475
place	-9.895
▁downward	-9.89507
hold	-9.90323
ubprime	-9.90346
▁intent	-9.9061
dependent	-9.91344
buy	-9.9163
▁auto	-9.91938
▁typical	-9.93108
voluntar	-9.93559
▁Economy	-9.93559
▁Michael	-9.93559
▁OECD	-9.93559
▁Phillips	-9.93559
▁Public	-9.93559
▁Stanley	-9.93559
▁Washington	-9.93559
▁boost	-9.93559
▁criticism	-9.93559
▁emerged	-9.93559
▁eurozone	-9.93559
▁exacerbat	-9.93559
▁opposite	-9.93559
▁disrupt	-9.93559
carbon	-9.9356
▁staff	-9.9356
▁existence	-9.93561
▁1931	-9.93561
▁sharp	-9.93562
▁prepar	-9.93564
▁extent	-9.93565
▁phase	-9.93566
▁North	-9.93571
lock	-9.93571
▁metals	-9.93586
▁Sachs	-9.93586
▁Arc	-9.93612
▁context	-9.9362
▁communication	-9.93673
▁desire	-9.93676
▁40%	-9.93739
▁brokerage	-9.93746
▁live	-9.93756
▁1913	-9.93756
velo	-9.93927
▁receiv	-9.93995
▁experienc	-9.94277
$1	-9.94435
repo	-9.94962
including	-9.95939
▁substitut	-9.9671
▁regulate	-9.97202
▁protect	-9.97655
losing	-9.97833
▁COVID	-9.97907
▁Development	-9.97907
▁Mortgage	-9.97907
▁Short	-9.97907
▁argument	-9.97907
▁categories	-9.97907
▁dynamic	-9.97907
▁facility	-9.97907
▁Roosevelt	-9.97907
▁grant	-9.97907
▁hours	-9.97907
▁sudden	-9.97907
▁Austria	-9.97907
▁repay	-9.97907
▁beyond	-9.97907
▁chairman	-9.97908
▁CRA	-9.97909
▁mix	-9.97909
▁monitor	-9.97909
▁1995	-9.97909
▁expert	-9.97911
▁carrie	-9.97915
▁convertible	-9.97929
▁Day	-9.97931
▁preced	-9.97939
▁advisory	-9.97953
▁bad	-9.97967
▁tight	-9.97987
▁Long	-9.98056
▁stop	-9.98138
▁Deposit	-9.98168
▁round	-9.98169
plus	-9.9825
debt	-10.0049
with	-10.005
efore	-10.0127
▁define	-10.0176
▁innovat	-10.02
author	-10.023
▁assess	-10.0237
▁settle	-10.0239
▁transport	-10.0245
▁Alternative	-10.0245
▁Canadian	-10.0245
▁Currency	-10.0245
▁Lynch	-10.0245
▁Nabisco	-10.0245
▁Organization	-10.0245
▁declining	-10.0245
▁equipment	-10.0245
▁expensive	-10.0245
▁fraction	-10.0245
▁software	-10.0245
ommunity	-10.0245
▁constraints	-10.0245
▁famous	-10.0245
▁latter	-10.0245
▁Average	-10.0245
▁Social	-10.0245
▁Account	-10.0245
▁label	-10.0245
▁resort	-10.0245
▁Christ	-10.0245
▁1936	-10.0246
▁blame	-10.0246
▁push	-10.0246
▁EPS	-10.0246
▁Manag	-10.0246
▁audit	-10.0246
▁automat	-10.0247
▁temp	-10.0247
▁adverse	-10.0247
▁Peter	-10.0247
ealand	-10.0249
▁Solow	-10.025
▁restrictions	-10.025
▁middle	-10.0251
▁authors	-10.0253
▁speculators	-10.0255
chair	-10.0256
align	-10.0259
▁lose	-10.0261
Back	-10.0341
ETF	-10.0523
interest	-10.0525
economic	-10.0525
system	-10.0526
income	-10.0528
eep	-10.0698
▁securitiz	-10.0704
▁bankrupt	-10.0719
neutral	-10.0721
▁Instead	-10.0721
▁Labour	-10.0721
▁Margin	-10.0721
▁People	-10.0721
▁academic	-10.0721
▁channel	-10.0721
▁eliminate	-10.0721
▁friction	-10.0721
▁identified	-10.0721
▁pursue	-10.0721
▁refinancing	-10.0721
▁specified	-10.0721
▁steady	-10.0721
▁machine	-10.0721
▁provision	-10.0721
▁NPV	-10.0721
▁minimiz	-10.0721
cogniti	-10.0722
▁concentrat	-10.0722
▁transition	-10.0722
▁status	-10.0722
▁error	-10.0722
▁Book	-10.0722
▁harm	-10.0722
arrange	-10.0722
▁Latin	-10.0722
▁overnight	-10.0722
▁High	-10.0722
▁equation	-10.0723
▁Change	-10.0723
▁ongoing	-10.0723
DCF	-10.0723
▁anchor	-10.0724
▁implie	-10.0725
▁2025	-10.0727
▁vote	-10.0733
▁Desp	-10.0743
committee	-10.0744
▁maximize	-10.0784
▁saving	-10.083
position	-10.0986
employment	-10.1013
where	-10.1025
either	-10.1049
▁entrepreneur	-10.1161
▁arbitrage	-10.1191
:10.10	-10.1221
▁Dividend	-10.1221
▁Authority	-10.1221
▁Industry	-10.1221
▁Merrill	-10.1221
▁huge	-10.1221
▁jurisdiction	-10.1221
▁measuring	-10.1221
▁monopoly	-10.1221
clusive	-10.1221
▁behind	-10.1221
▁outperform	-10.1221
▁partnership	-10.1221
▁Protection	-10.1221
▁adapt	-10.1221
▁Ireland	-10.1221
▁LBO	-10.1221
▁Politic	-10.1221
▁GNI	-10.1222
▁convention	-10.1222
▁device	-10.1222
▁equities	-10.1222
▁timing	-10.1222
▁chain	-10.1222
▁1992	-10.1222
▁match	-10.1222
▁1937	-10.1222
▁reference	-10.1222
▁Marx	-10.1222
▁young	-10.1222
▁title	-10.1223
▁Rule	-10.1223
▁Unlike	-10.1224
▁Buy	-10.1224
▁persist	-10.1225
▁bias	-10.1226
▁Italy	-10.1227
▁trap	-10.1227
▁deep	-10.1228
▁hope	-10.1233
▁updat	-10.124
%	-10.124
▁influenc	-10.1357
▁(202	-10.1359
gain	-10.1425
regulation	-10.1548
effective	-10.1551
known	-10.1551
which	-10.1551
free	-10.1555
price	-10.1556
▁relat	-10.1598
rude	-10.1649
flexi	-10.1665
▁know	-10.1713
▁merge	-10.172
▁respect	-10.1738
▁Acquisitions	-10.1748
▁Derivatives	-10.1748
▁George	-10.1748
▁NASDAQ	-10.1748
▁Security	-10.1748
▁bodies	-10.1748
▁citizens	-10.1748
▁crucial	-10.1748
▁devaluation	-10.1748
▁diligence	-10.1748
▁eligible	-10.1748
▁iShares	-10.1748
▁package	-10.1748
▁proposal	-10.1748
▁strength	-10.1748
▁supplied	-10.1748
▁treasur	-10.1748
▁unique	-10.1748
▁unsustainable	-10.1748
▁written	-10.1748
TARP	-10.1748
▁Typical	-10.1748
▁Wood	-10.1748
▁abandon	-10.1748
▁controvers	-10.1748
▁Insurance	-10.1748
▁student	-10.1748
▁Swiss	-10.1748
▁attack	-10.1748
▁Common	-10.1748
▁worsen	-10.1748
▁promis	-10.1748
▁ordinar	-10.1749
evertheless	-10.1749
▁Fisc	-10.1749
▁dramatically	-10.175
▁election	-10.175
.25%	-10.1751
friend	-10.1751
▁Income	-10.1752
▁raw	-10.1755
Options	-10.1769
▁origin	-10.1863
▁characteriz	-10.1876
▁Free	-10.1947
invest	-10.2093
standing	-10.2099
inflation	-10.2107
loss	-10.2113
▁encourag	-10.2259
▁specializ	-10.2279
ollowing	-10.2298
iddle	-10.2299
▁fluctuat	-10.2299
▁Benjamin	-10.2303
▁Example	-10.2303
▁Indicator	-10.2303
▁Philip	-10.2303
▁Revolution	-10.2303
▁Structur	-10.2303
▁Vanguard	-10.2303
▁administration	-10.2303
▁apparent	-10.2303
▁comprehensive	-10.2303
▁critics	-10.2303
▁discussion	-10.2303
▁evolv	-10.2303
▁exercise	-10.2303
▁manipulat	-10.2303
▁mathematical	-10.2303
▁revolution	-10.2303
▁tariff	-10.2303
▁website	-10.2303
▁(2008)	-10.2303
▁(2009)	-10.2303
▁Effect	-10.2303
▁Recovery	-10.2303
▁advice	-10.2303
▁diminish	-10.2303
▁redeem	-10.2303
elastic	-10.2303
▁Modern	-10.2303
▁introduction	-10.2303
▁Madoff	-10.2303
▁civil	-10.2303
▁AIG	-10.2303
▁Crash	-10.2303
▁Among	-10.2304
▁court	-10.2304
▁entitle	-10.2304
▁temporary	-10.2304
▁Series	-10.2304
▁medical	-10.2304
▁Data	-10.2305
▁dominat	-10.2305
▁Way	-10.2307
ception	-10.2428
adjusted	-10.2534
financial	-10.2695
▁combin	-10.2755
▁interpret	-10.2791
▁Aldrich	-10.2892
▁Amsterdam	-10.2892
▁Deutsche	-10.2892
▁Regulator	-10.2892
▁Secretary	-10.2892
▁Smith	-10.2892
▁Survey	-10.2892
▁announcement	-10.2892
▁applicable	-10.2892
▁appreciation	-10.2892
▁literature	-10.2892
▁platform	-10.2892
▁senior	-10.2892
▁taxpayer	-10.2892
▁variation	-10.2892
▁(2005)	-10.2892
▁Spain	-10.2892
▁strict	-10.2892
▁workforce	-10.2892
clusion	-10.2892
▁Encyclop	-10.2892
▁Member	-10.2892
▁Sweden	-10.2892
▁authorities	-10.2892
▁attention	-10.2892
▁politicians	-10.2892
▁978-1-	-10.2892
▁Increase	-10.2892
▁1982	-10.2892
▁stress	-10.2892
responsibilities	-10.2892
▁slight	-10.2892
▁spiral	-10.2892
Western	-10.2893
▁Two	-10.2893
▁Direct	-10.2894
▁insured	-10.2894
Henry	-10.2899
▁Martin	-10.2901
grav	-10.2926
▁ensu	-10.2938
▁minu	-10.2957
▁Partners	-10.3163
▁Sub	-10.3358
taking	-10.3407
funded	-10.3418
▁agree	-10.3433
▁possibl	-10.3445
emporary	-10.3516
▁Brazil	-10.3517
▁consolidat	-10.3517
administered	-10.3517
appointed	-10.3517
ercantil	-10.3517
▁Advisor	-10.3517
▁Citigroup	-10.3517
▁Origins	-10.3517
▁Purchase	-10.3517
▁Regulation	-10.3517
▁Trust	-10.3517
▁adequate	-10.3517
▁confirm	-10.3517
▁correlation	-10.3517
▁emphasize	-10.3517
▁endogenous	-10.3517
▁exclud	-10.3517
▁guidance	-10.3517
▁procedure	-10.3517
▁proprietary	-10.3517
▁sentiment	-10.3517
▁smooth	-10.3517
▁society	-10.3517
▁synthetic	-10.3517
▁Senate	-10.3517
▁surviv	-10.3517
▁discretion	-10.3517
▁poverty	-10.3517
▁grain	-10.3517
▁window	-10.3517
▁Leverage	-10.3517
▁disaster	-10.3517
▁task	-10.3517
▁prolong	-10.3517
▁sense	-10.3517
▁Italian	-10.3517
▁Gross	-10.3517
▁tightening	-10.3517
▁Edward	-10.3517
▁permit	-10.3517
▁reveal	-10.3517
▁Paper	-10.3517
▁walk	-10.3517
▁inherent	-10.3517
▁Steve	-10.3517
PDF	-10.3517
▁instability	-10.3517
▁vast	-10.3518
uff	-10.3518
▁Brown	-10.3518
▁content	-10.3522
▁You	-10.3532
shaped	-10.3538
ebate	-10.3563
ngel	-10.3653
0-3	-10.3826
ecutive	-10.3858
IPO	-10.3986
mergency	-10.4074
▁politic	-10.4127
emocratic	-10.4127
▁organiz	-10.4166
▁bail	-10.4179
ficiencies	-10.4183
ontinental	-10.4183
▁Countrywide	-10.4183
▁absorb	-10.4183
▁availability	-10.4183
▁children	-10.4183
▁circumstances	-10.4183
▁conversion	-10.4183
▁deteriorat	-10.4183
▁disclose	-10.4183
▁diversification	-10.4183
▁execute	-10.4183
▁illiquid	-10.4183
▁impossible	-10.4183
▁intrinsic	-10.4183
▁length	-10.4183
▁practical	-10.4183
▁repurchase	-10.4183
▁skills	-10.4183
▁supplier	-10.4183
▁(2002)	-10.4183
▁(2007)	-10.4183
▁KKR	-10.4183
▁damage	-10.4183
▁journ	-10.4183
▁speech	-10.4183
Chairman	-10.4183
▁Crises	-10.4183
▁enacted	-10.4183
▁thousand	-10.4183
▁Measur	-10.4183
▁learn	-10.4183
▁undertake	-10.4183
▁1972	-10.4183
▁determinants	-10.4184
▁Simon	-10.4184
▁9780	-10.4184
▁Retai	-10.4197
▁(196	-10.4201
ncient	-10.4216
opula	-10.436
▁Creat	-10.4379
ourse	-10.4479
▁collateraliz	-10.4557
profit	-10.47
special	-10.47
unprecedented	-10.4898
▁Empire	-10.4898
▁graph	-10.4898
▁municipal	-10.4898
FOMC	-10.4898
NBER	-10.4898
Steagall	-10.4898
cientific	-10.4898
▁Analysts	-10.4898
▁Enterprise	-10.4898
▁Franklin	-10.4898
▁Kravis	-10.4898
▁Mexico	-10.4898
▁Princeton	-10.4898
▁Principles	-10.4898
▁Publishing	-10.4898
▁Relief	-10.4898
▁conservative	-10.4898
▁counterparty	-10.4898
▁credible	-10.4898
▁denominat	-10.4898
▁disclosure	-10.4898
▁female	-10.4898
▁gradually	-10.4898
▁hundred	-10.4898
▁hyperinflation	-10.4898
▁identification	-10.4898
▁influ	-10.4898
▁infrastructure	-10.4898
▁mismatch	-10.4898
▁possess	-10.4898
▁reluctan	-10.4898
▁schedule	-10.4898
▁simultaneous	-10.4898
▁studied	-10.4898
▁technologies	-10.4898
▁virtual	-10.4898
▁behalf	-10.4898
▁narrow	-10.4898
▁Front	-10.4898
▁opinion	-10.4898
▁prevail	-10.4898
▁wholesale	-10.4898
▁IMF	-10.4898
▁serious	-10.4898
▁Machine	-10.4898
▁aftermath	-10.4898
▁Often	-10.4898
▁danger	-10.4898
▁warrant	-10.4898
▁writing	-10.4898
▁heavy	-10.4898
▁Guide	-10.4898
▁valid	-10.4898
▁banknotes	-10.4898
▁1994	-10.4898
▁1939	-10.4898
▁Information	-10.4898
▁answer	-10.4898
▁repeal	-10.4898
▁Poland	-10.4898
▁Issu	-10.4899
lateral	-10.4899
▁couple	-10.4899
▁comprise	-10.49
▁redistribut	-10.4921
interpretation	-10.5022
dividend	-10.5469
dollar	-10.5469
crisis	-10.547
▁stimulat	-10.5503
▁earlie	-10.5634
resident	-10.5644
ountries	-10.5661
▁circula	-10.5667
pisode	-10.5667
producing	-10.5667
▁(2010)	-10.5667
▁Division	-10.5667
▁Draghi	-10.5667
▁Liquidity	-10.5667
▁Marshall	-10.5667
▁Obama	-10.5667
▁Schwartz	-10.5667
▁Switzerland	-10.5667
▁Transaction	-10.5667
▁abroad	-10.5667
▁applies	-10.5667
▁converge	-10.5667
▁credibility	-10.5667
▁cultural	-10.5667
▁drug	-10.5667
▁geographic	-10.5667
▁guidelines	-10.5667
▁hazard	-10.5667
▁hybrid	-10.5667
▁intermediate	-10.5667
▁likelihood	-10.5667
▁magazine	-10.5667
▁prohibit	-10.5667
▁qualify	-10.5667
▁redemption	-10.5667
▁registration	-10.5667
▁relax	-10.5667
▁robust	-10.5667
▁surpass	-10.5667
▁symbol	-10.5667
▁syndicate	-10.5667
▁volatile	-10.5667
▁(2006)	-10.5667
▁FDIC	-10.5667
▁constitut	-10.5667
▁deferr	-10.5667
▁accru	-10.5667
▁scholars	-10.5667
▁department	-10.5667
▁Glass	-10.5667
▁consult	-10.5667
▁coupon	-10.5667
▁alleged	-10.5667
▁loose	-10.5667
wood	-10.5667
▁interaction	-10.5667
constrain	-10.5667
▁1987	-10.5667
▁deviation	-10.5667
▁Korea	-10.5667
▁surge	-10.5667
▁coincid	-10.5667
▁frame	-10.5669
▁Appl	-10.567
▁repeat	-10.567
profile	-10.5671
▁Declin	-10.5675
ARM	-10.5678
▁Democrat	-10.5732
▁liquidate	-10.589
▁analyst	-10.6108
broker	-10.6302
▁committ	-10.6459
▁broke	-10.6467
▁depress	-10.6476
pecifically	-10.6492
▁dramatic	-10.6497
introduc	-10.6498
▁Egypt	-10.65
▁bullion	-10.65
▁dimension	-10.65
▁enormous	-10.65
▁exploit	-10.65
▁satisf	-10.65
fulfilling	-10.65
▁(2001)	-10.65
▁Bloomberg	-10.65
▁Bubble	-10.65
▁California	-10.65
▁Conference	-10.65
▁Financing	-10.65
▁Lagarde	-10.65
▁Likewise	-10.65
▁Microeconomic	-10.65
▁Minister	-10.65
▁Nazi	-10.65
▁Official	-10.65
▁SPDR	-10.65
▁Science	-10.65
▁Valuation	-10.65
▁XXX	-10.65
▁austerity	-10.65
▁bonuses	-10.65
▁campaign	-10.65
▁delinquenc	-10.65
▁diagram	-10.65
▁explicit	-10.65
▁extensive	-10.65
▁irrational	-10.65
▁quantities	-10.65
▁science	-10.65
▁steadily	-10.65
▁tranches	-10.65
▁grade	-10.65
▁scheme	-10.65
▁vertical	-10.65
diversity	-10.65
▁culture	-10.65
▁travel	-10.65
▁BOJ	-10.65
▁cumulat	-10.65
▁insolvent	-10.65
▁crunch	-10.65
▁Control	-10.65
▁violation	-10.65
Century	-10.65
▁request	-10.65
▁dispos	-10.6506
▁authoriz	-10.6515
tabilization	-10.6715
acceptable	-10.6997
determined	-10.7211
structure	-10.7212
dependence	-10.7262
undamental	-10.7405
nowledge	-10.7409
▁deduct	-10.7409
balancing	-10.7409
ezzanine	-10.7409
frequency	-10.7409
responsive	-10.7409
▁(1997)	-10.7409
▁Argentin	-10.7409
▁Borrower	-10.7409
▁Energy	-10.7409
▁Hitler	-10.7409
▁McGraw	-10.7409
▁Minsky	-10.7409
